{
  "version": "1.0",
  "truncation": null,
  "padding": null,
  "added_tokens": [
    {
      "id": 0,
      "content": "[UNK]",
      "single_word": false,
      "lstrip": false,
      "rstrip": false,
      "normalized": false,
      "special": true
    },
    {
      "id": 1,
      "content": "[CLS]",
      "single_word": false,
      "lstrip": false,
      "rstrip": false,
      "normalized": false,
      "special": true
    },
    {
      "id": 2,
      "content": "[SEP]",
      "single_word": false,
      "lstrip": false,
      "rstrip": false,
      "normalized": false,
      "special": true
    },
    {
      "id": 3,
      "content": "[PAD]",
      "single_word": false,
      "lstrip": false,
      "rstrip": false,
      "normalized": false,
      "special": true
    },
    {
      "id": 4,
      "content": "[MASK]",
      "single_word": false,
      "lstrip": false,
      "rstrip": false,
      "normalized": false,
      "special": true
    }
  ],
  "normalizer": null,
  "pre_tokenizer": {
    "type": "Whitespace"
  },
  "post_processor": null,
  "decoder": null,
  "model": {
    "type": "BPE",
    "dropout": null,
    "unk_token": "[UNK]",
    "continuing_subword_prefix": null,
    "end_of_word_suffix": null,
    "fuse_unk": false,
    "byte_fallback": false,
    "ignore_merges": false,
    "vocab": {
      "[UNK]": 0,
      "[CLS]": 1,
      "[SEP]": 2,
      "[PAD]": 3,
      "[MASK]": 4,
      "!": 5,
      "\"": 6,
      "#": 7,
      "$": 8,
      "%": 9,
      "&": 10,
      "'": 11,
      "(": 12,
      ")": 13,
      "*": 14,
      "+": 15,
      ",": 16,
      "-": 17,
      ".": 18,
      "/": 19,
      "0": 20,
      "1": 21,
      "2": 22,
      "3": 23,
      "4": 24,
      "5": 25,
      "6": 26,
      "7": 27,
      "8": 28,
      "9": 29,
      ":": 30,
      ";": 31,
      "=": 32,
      "?": 33,
      "@": 34,
      "A": 35,
      "B": 36,
      "C": 37,
      "D": 38,
      "E": 39,
      "F": 40,
      "G": 41,
      "H": 42,
      "I": 43,
      "J": 44,
      "K": 45,
      "L": 46,
      "M": 47,
      "N": 48,
      "O": 49,
      "P": 50,
      "Q": 51,
      "R": 52,
      "S": 53,
      "T": 54,
      "U": 55,
      "V": 56,
      "W": 57,
      "X": 58,
      "Y": 59,
      "Z": 60,
      "[": 61,
      "\\": 62,
      "]": 63,
      "^": 64,
      "_": 65,
      "`": 66,
      "a": 67,
      "b": 68,
      "c": 69,
      "d": 70,
      "e": 71,
      "f": 72,
      "g": 73,
      "h": 74,
      "i": 75,
      "j": 76,
      "k": 77,
      "l": 78,
      "m": 79,
      "n": 80,
      "o": 81,
      "p": 82,
      "q": 83,
      "r": 84,
      "s": 85,
      "t": 86,
      "u": 87,
      "v": 88,
      "w": 89,
      "x": 90,
      "y": 91,
      "z": 92,
      "{": 93,
      "|": 94,
      "}": 95,
      "~": 96,
      "": 97,
      "": 98,
      "": 99,
      "": 100,
      "": 101,
      "": 102,
      "": 103,
      "": 104,
      "¡": 105,
      "¢": 106,
      "£": 107,
      "¤": 108,
      "¥": 109,
      "¦": 110,
      "§": 111,
      "©": 112,
      "¬": 113,
      "­": 114,
      "®": 115,
      "°": 116,
      "±": 117,
      "¶": 118,
      "·": 119,
      "¿": 120,
      "À": 121,
      "Á": 122,
      "Â": 123,
      "Ã": 124,
      "Ä": 125,
      "Å": 126,
      "Æ": 127,
      "Ç": 128,
      "È": 129,
      "É": 130,
      "Ê": 131,
      "Ë": 132,
      "Ì": 133,
      "Í": 134,
      "Î": 135,
      "Ï": 136,
      "Ð": 137,
      "Ñ": 138,
      "Ò": 139,
      "Ó": 140,
      "Ô": 141,
      "Õ": 142,
      "Ö": 143,
      "×": 144,
      "Ø": 145,
      "Ù": 146,
      "Ú": 147,
      "Û": 148,
      "Ü": 149,
      "Ý": 150,
      "Þ": 151,
      "ß": 152,
      "à": 153,
      "á": 154,
      "â": 155,
      "ã": 156,
      "ä": 157,
      "å": 158,
      "æ": 159,
      "ç": 160,
      "è": 161,
      "é": 162,
      "ê": 163,
      "ë": 164,
      "ì": 165,
      "í": 166,
      "î": 167,
      "ï": 168,
      "ð": 169,
      "ñ": 170,
      "ò": 171,
      "ó": 172,
      "ô": 173,
      "õ": 174,
      "ö": 175,
      "÷": 176,
      "ø": 177,
      "ù": 178,
      "ú": 179,
      "û": 180,
      "ü": 181,
      "ý": 182,
      "þ": 183,
      "Ā": 184,
      "ā": 185,
      "ă": 186,
      "ą": 187,
      "ć": 188,
      "Č": 189,
      "č": 190,
      "ď": 191,
      "Đ": 192,
      "đ": 193,
      "ē": 194,
      "ĕ": 195,
      "ė": 196,
      "ę": 197,
      "ě": 198,
      "ğ": 199,
      "ġ": 200,
      "Ĥ": 201,
      "ħ": 202,
      "ī": 203,
      "ĭ": 204,
      "į": 205,
      "İ": 206,
      "ı": 207,
      "ķ": 208,
      "ĺ": 209,
      "ļ": 210,
      "Ľ": 211,
      "ľ": 212,
      "Ł": 213,
      "ł": 214,
      "ń": 215,
      "ņ": 216,
      "ň": 217,
      "ŋ": 218,
      "Ō": 219,
      "ō": 220,
      "ŏ": 221,
      "ő": 222,
      "Œ": 223,
      "œ": 224,
      "Ř": 225,
      "ř": 226,
      "Ś": 227,
      "ś": 228,
      "Ş": 229,
      "ş": 230,
      "Š": 231,
      "š": 232,
      "ţ": 233,
      "ū": 234,
      "ŭ": 235,
      "ů": 236,
      "Ÿ": 237,
      "ź": 238,
      "Ż": 239,
      "ż": 240,
      "Ž": 241,
      "ž": 242,
      "ơ": 243,
      "ư": 244,
      "ǁ": 245,
      "ǒ": 246,
      "ǔ": 247,
      "Ș": 248,
      "ș": 249,
      "ț": 250,
      "ɐ": 251,
      "ɑ": 252,
      "ɔ": 253,
      "ə": 254,
      "ɛ": 255,
      "ɨ": 256,
      "ɩ": 257,
      "ɪ": 258,
      "ɫ": 259,
      "ɷ": 260,
      "ʁ": 261,
      "ʃ": 262,
      "ʊ": 263,
      "ʋ": 264,
      "ʌ": 265,
      "ʑ": 266,
      "ʒ": 267,
      "ʻ": 268,
      "ʼ": 269,
      "ʾ": 270,
      "ʿ": 271,
      "ˆ": 272,
      "ˈ": 273,
      "ˌ": 274,
      "ː": 275,
      "˥": 276,
      "˨": 277,
      "˩": 278,
      "؟": 279,
      "ـ": 280,
      "۰": 281,
      "་": 282,
      "၀": 283,
      "၁": 284,
      "၂": 285,
      "၃": 286,
      "၄": 287,
      "၅": 288,
      "၆": 289,
      "၇": 290,
      "၈": 291,
      "၉": 292,
      "ḍ": 293,
      "Ḥ": 294,
      "ḥ": 295,
      "ḷ": 296,
      "Ṃ": 297,
      "ṅ": 298,
      "ṇ": 299,
      "ṣ": 300,
      "Ṭ": 301,
      "ṭ": 302,
      "ạ": 303,
      "ả": 304,
      "ầ": 305,
      "ề": 306,
      "ễ": 307,
      "ệ": 308,
      "ọ": 309,
      "ỗ": 310,
      "ộ": 311,
      "ờ": 312,
      "ủ": 313,
      "ứ": 314,
      "ữ": 315,
      "​": 316,
      "‎": 317,
      "–": 318,
      "—": 319,
      "―": 320,
      "‘": 321,
      "’": 322,
      "‚": 323,
      "“": 324,
      "”": 325,
      "„": 326,
      "†": 327,
      "•": 328,
      "′": 329,
      "⁄": 330,
      "₤": 331,
      "€": 332,
      "₹": 333,
      "→": 334,
      "↫": 335,
      "∂": 336,
      "−": 337,
      "∴": 338,
      "≈": 339,
      "⊙": 340,
      "⋅": 341,
      "█": 342,
      "☚": 343,
      "☛": 344,
      "☯": 345,
      "♪": 346,
      "♫": 347,
      "♭": 348,
      "♯": 349,
      "⟨": 350,
      "⟩": 351,
      "⬄": 352,
      "ー": 353,
      "�": 354,
      "􏿾": 355,
      "th": 356,
      "in": 357,
      "er": 358,
      "an": 359,
      "ou": 360,
      "the": 361,
      "at": 362,
      "on": 363,
      "re": 364,
      "is": 365,
      "to": 366,
      "en": 367,
      "it": 368,
      "ing": 369,
      "OT": 370,
      "MOT": 371,
      "you": 372,
      "ll": 373,
      "as": 374,
      "and": 375,
      "ed": 376,
      "es": 377,
      "or": 378,
      "ar": 379,
      "he": 380,
      "CH": 381,
      "of": 382,
      "CHI": 383,
      "me": 384,
      "no": 385,
      "le": 386,
      "wh": 387,
      "st": 388,
      "se": 389,
      "ha": 390,
      "that": 391,
      "ere": 392,
      "ay": 393,
      "ve": 394,
      "be": 395,
      "al": 396,
      "ic": 397,
      "ro": 398,
      "gh": 399,
      "id": 400,
      "do": 401,
      "ch": 402,
      "go": 403,
      "ld": 404,
      "was": 405,
      "ut": 406,
      "all": 407,
      "we": 408,
      "ad": 409,
      "ke": 410,
      "lo": 411,
      "for": 412,
      "ac": 413,
      "so": 414,
      "wi": 415,
      "li": 416,
      "ver": 417,
      "ri": 418,
      "..": 419,
      "co": 420,
      "ght": 421,
      "ent": 422,
      "ir": 423,
      "ly": 424,
      "ion": 425,
      "et": 426,
      "one": 427,
      "un": 428,
      "are": 429,
      "ho": 430,
      "ok": 431,
      "now": 432,
      "ab": 433,
      "ea": 434,
      "out": 435,
      "im": 436,
      "with": 437,
      "what": 438,
      "ter": 439,
      "mo": 440,
      "am": 441,
      "ther": 442,
      "ur": 443,
      "up": 444,
      "ne": 445,
      "us": 446,
      "not": 447,
      "my": 448,
      "have": 449,
      "The": 450,
      "ould": 451,
      "this": 452,
      "his": 453,
      "ag": 454,
      "nd": 455,
      "ce": 456,
      "bo": 457,
      "there": 458,
      "can": 459,
      "ant": 460,
      "po": 461,
      "ust": 462,
      "um": 463,
      "her": 464,
      "they": 465,
      "know": 466,
      "ta": 467,
      "she": 468,
      "ti": 469,
      "your": 470,
      "sa": 471,
      "xx": 472,
      "pe": 473,
      "od": 474,
      "pl": 475,
      "eah": 476,
      "if": 477,
      "...": 478,
      "here": 479,
      "au": 480,
      "de": 481,
      "don": 482,
      "tr": 483,
      "thing": 484,
      "but": 485,
      "some": 486,
      "te": 487,
      "had": 488,
      "fe": 489,
      "oh": 490,
      "like": 491,
      "na": 492,
      "get": 493,
      "our": 494,
      "rom": 495,
      "il": 496,
      "ap": 497,
      "wn": 498,
      "ain": 499,
      "It": 500,
      "He": 501,
      "him": 502,
      "ack": 503,
      "hat": 504,
      "ie": 505,
      "man": 506,
      "art": 507,
      "ink": 508,
      "by": 509,
      "did": 510,
      "sh": 511,
      "IN": 512,
      "see": 513,
      "AT": 514,
      "You": 515,
      "look": 516,
      "from": 517,
      "ck": 518,
      "ard": 519,
      "ess": 520,
      "res": 521,
      "ma": 522,
      "con": 523,
      "ill": 524,
      "way": 525,
      "very": 526,
      "ation": 527,
      "est": 528,
      "right": 529,
      "ight": 530,
      "op": 531,
      "ers": 532,
      "com": 533,
      "ul": 534,
      "qu": 535,
      "ct": 536,
      "wo": 537,
      "yeah": 538,
      "ry": 539,
      "were": 540,
      "ig": 541,
      "who": 542,
      "ound": 543,
      "FAT": 544,
      "ind": 545,
      "got": 546,
      "wor": 547,
      "just": 548,
      "them": 549,
      "end": 550,
      "No": 551,
      "su": 552,
      "think": 553,
      "fo": 554,
      "itt": 555,
      "about": 556,
      "want": 557,
      "ally": 558,
      "ong": 559,
      "We": 560,
      "INV": 561,
      "ex": 562,
      "any": 563,
      "ge": 564,
      "would": 565,
      "ate": 566,
      "].": 567,
      "other": 568,
      "ast": 569,
      "ra": 570,
      "om": 571,
      "said": 572,
      "pro": 573,
      "how": 574,
      "el": 575,
      "ich": 576,
      "where": 577,
      "then": 578,
      "put": 579,
      "ice": 580,
      "20": 581,
      "ep": 582,
      "ber": 583,
      "--": 584,
      "ven": 585,
      "xxx": 586,
      "say": 587,
      "ive": 588,
      "day": 589,
      "when": 590,
      "uh": 591,
      "ick": 592,
      "ol": 593,
      "ow": 594,
      "ment": 595,
      "ough": 596,
      "come": 597,
      "19": 598,
      "ist": 599,
      "will": 600,
      "ish": 601,
      "ine": 602,
      "good": 603,
      ".\"": 604,
      "der": 605,
      "down": 606,
      "time": 607,
      "ittle": 608,
      "ous": 609,
      "back": 610,
      "ide": 611,
      "well": 612,
      "over": 613,
      "let": 614,
      "And": 615,
      "more": 616,
      "off": 617,
      "has": 618,
      "red": 619,
      "yes": 620,
      "little": 621,
      "sp": 622,
      "going": 623,
      "ty": 624,
      "What": 625,
      "pp": 626,
      "ause": 627,
      "gr": 628,
      "could": 629,
      "been": 630,
      "king": 631,
      "af": 632,
      "bl": 633,
      "ort": 634,
      "which": 635,
      "dy": 636,
      "oun": 637,
      "lf": 638,
      "ear": 639,
      "ite": 640,
      "ree": 641,
      "ity": 642,
      "ace": 643,
      "two": 644,
      "okay": 645,
      "per": 646,
      "cause": 647,
      "play": 648,
      "AR": 649,
      "br": 650,
      "ca": 651,
      "ies": 652,
      "act": 653,
      "ild": 654,
      "ang": 655,
      "age": 656,
      ",\"": 657,
      "than": 658,
      "Oh": 659,
      "their": 660,
      "ple": 661,
      "cl": 662,
      "sto": 663,
      "In": 664,
      "ts": 665,
      "EX": 666,
      "She": 667,
      "ase": 668,
      "Th": 669,
      "gon": 670,
      "ans": 671,
      "So": 672,
      "But": 673,
      "EXP": 674,
      "read": 675,
      "Yeah": 676,
      "ass": 677,
      "di": 678,
      "ure": 679,
      "urn": 680,
      "take": 681,
      "does": 682,
      "gonna": 683,
      "av": 684,
      "bab": 685,
      "ought": 686,
      "make": 687,
      "into": 688,
      "si": 689,
      "ade": 690,
      "too": 691,
      "Ch": 692,
      "again": 693,
      "ople": 694,
      "uck": 695,
      "gu": 696,
      "reat": 697,
      "fir": 698,
      "mer": 699,
      "car": 700,
      "tell": 701,
      "part": 702,
      "dis": 703,
      "ble": 704,
      "able": 705,
      "Wh": 706,
      "fore": 707,
      "orn": 708,
      "PAR": 709,
      "That": 710,
      "wat": 711,
      "ose": 712,
      "self": 713,
      "iss": 714,
      "ret": 715,
      "ary": 716,
      "ot": 717,
      "people": 718,
      "mu": 719,
      "ren": 720,
      "ci": 721,
      "ps": 722,
      "ah": 723,
      "Mr": 724,
      "hand": 725,
      "ance": 726,
      "They": 727,
      "call": 728,
      "ved": 729,
      "need": 730,
      "first": 731,
      "ue": 732,
      "lau": 733,
      "child": 734,
      "Well": 735,
      "work": 736,
      "ob": 737,
      "pr": 738,
      "tor": 739,
      "should": 740,
      "add": 741,
      "mber": 742,
      "ave": 743,
      "tal": 744,
      "after": 745,
      "AN": 746,
      "new": 747,
      "bu": 748,
      "ting": 749,
      "ves": 750,
      "sha": 751,
      "ise": 752,
      "laugh": 753,
      "row": 754,
      "bet": 755,
      "ys": 756,
      "hi": 757,
      "ving": 758,
      "went": 759,
      "hm": 760,
      "only": 761,
      "every": 762,
      "em": 763,
      "because": 764,
      "ress": 765,
      "air": 766,
      "long": 767,
      "ile": 768,
      "much": 769,
      "St": 770,
      "try": 771,
      "came": 772,
      "didn": 773,
      "wan": 774,
      "ence": 775,
      "year": 776,
      "its": 777,
      "cho": 778,
      "old": 779,
      "min": 780,
      "really": 781,
      "these": 782,
      "str": 783,
      "fer": 784,
      "ia": 785,
      "Yes": 786,
      "coun": 787,
      "int": 788,
      "ull": 789,
      "happ": 790,
      "something": 791,
      "won": 792,
      "made": 793,
      "rea": 794,
      "cr": 795,
      "ank": 796,
      "why": 797,
      "pos": 798,
      "ouse": 799,
      "clo": 800,
      "most": 801,
      "gl": 802,
      "This": 803,
      "irl": 804,
      "head": 805,
      "la": 806,
      "cle": 807,
      "mon": 808,
      "ph": 809,
      "hel": 810,
      "side": 811,
      "wanna": 812,
      "IS": 813,
      "kes": 814,
      "wr": 815,
      "bit": 816,
      "mean": 817,
      "under": 818,
      "big": 819,
      "ser": 820,
      "ated": 821,
      "ward": 822,
      "may": 823,
      "ball": 824,
      "wa": 825,
      "away": 826,
      "three": 827,
      "ark": 828,
      "before": 829,
      "?\"": 830,
      "low": 831,
      "sing": 832,
      "girl": 833,
      "pt": 834,
      "ask": 835,
      "med": 836,
      "There": 837,
      "those": 838,
      "sho": 839,
      "turn": 840,
      "bro": 841,
      "cha": 842,
      "TH": 843,
      "night": 844,
      "tain": 845,
      "ather": 846,
      "ire": 847,
      "RO": 848,
      "doing": 849,
      "MA": 850,
      "men": 851,
      ".]": 852,
      "Co": 853,
      "llow": 854,
      "also": 855,
      "never": 856,
      "ft": 857,
      "port": 858,
      "ian": 859,
      "ip": 860,
      "book": 861,
      "rough": 862,
      "give": 863,
      "used": 864,
      "ful": 865,
      "even": 866,
      "thought": 867,
      "ms": 868,
      "les": 869,
      "ever": 870,
      "Do": 871,
      "body": 872,
      "home": 873,
      "che": 874,
      "ens": 875,
      "fri": 876,
      "eat": 877,
      "iz": 878,
      "ud": 879,
      "huh": 880,
      "land": 881,
      "ict": 882,
      "house": 883,
      "use": 884,
      "inter": 885,
      "things": 886,
      "care": 887,
      "mother": 888,
      "stand": 889,
      "ction": 890,
      "another": 891,
      "many": 892,
      "boy": 893,
      "Un": 894,
      "light": 895,
      "gg": 896,
      "room": 897,
      "find": 898,
      "great": 899,
      "mat": 900,
      "must": 901,
      "ord": 902,
      "love": 903,
      "vo": 904,
      "done": 905,
      "start": 906,
      "sm": 907,
      "ried": 908,
      "name": 909,
      "friend": 910,
      "show": 911,
      "wer": 912,
      "through": 913,
      "help": 914,
      "lie": 915,
      "laughs": 916,
      "still": 917,
      "TE": 918,
      "ny": 919,
      "ye": 920,
      "201": 921,
      "last": 922,
      "fin": 923,
      "baby": 924,
      "dr": 925,
      "Ro": 926,
      "ush": 927,
      "Fr": 928,
      "ss": 929,
      "00": 930,
      "ba": 931,
      "ww": 932,
      "BRO": 933,
      "ign": 934,
      "ious": 935,
      "If": 936,
      "spe": 937,
      "sup": 938,
      "sure": 939,
      "might": 940,
      "ling": 941,
      "cre": 942,
      "GMA": 943,
      "ff": 944,
      "lat": 945,
      "tea": 946,
      "ily": 947,
      "ten": 948,
      "found": 949,
      "ton": 950,
      "des": 951,
      "kind": 952,
      "own": 953,
      "ened": 954,
      "erm": 955,
      "Go": 956,
      "place": 957,
      "lot": 958,
      "ions": 959,
      "SIS": 960,
      "dif": 961,
      "cour": 962,
      "pres": 963,
      "ummy": 964,
      "ready": 965,
      "How": 966,
      "pre": 967,
      "member": 968,
      "att": 969,
      "ually": 970,
      "Be": 971,
      "four": 972,
      "als": 973,
      "Mar": 974,
      "bed": 975,
      "chool": 976,
      "called": 977,
      "ways": 978,
      "comp": 979,
      "set": 980,
      "ange": 981,
      "feel": 982,
      "keep": 983,
      "less": 984,
      "oney": 985,
      "ks": 986,
      "xt": 987,
      "sit": 988,
      "ger": 989,
      ".”": 990,
      "tim": 991,
      "sec": 992,
      "ates": 993,
      "better": 994,
      "inn": 995,
      "water": 996,
      "looks": 997,
      "Lo": 998,
      "watch": 999,
      "cont": 1000,
      "such": 1001,
      "ds": 1002,
      "life": 1003,
      "being": 1004,
      "around": 1005,
      "though": 1006,
      "while": 1007,
      "col": 1008,
      "son": 1009,
      "ces": 1010,
      "isn": 1011,
      "ited": 1012,
      "run": 1013,
      "gi": 1014,
      "vis": 1015,
      "fr": 1016,
      "cent": 1017,
      "years": 1018,
      "cer": 1019,
      "nice": 1020,
      "ash": 1021,
      "Don": 1022,
      "Al": 1023,
      "mm": 1024,
      "hold": 1025,
      "addy": 1026,
      "orry": 1027,
      "und": 1028,
      "mar": 1029,
      "anything": 1030,
      "Ne": 1031,
      "Why": 1032,
      "pol": 1033,
      "box": 1034,
      "An": 1035,
      "arm": 1036,
      "MCH": 1037,
      "ical": 1038,
      "Is": 1039,
      "same": 1040,
      "ars": 1041,
      "talk": 1042,
      "comm": 1043,
      "face": 1044,
      "brea": 1045,
      "je": 1046,
      "ors": 1047,
      "wee": 1048,
      "pret": 1049,
      "shall": 1050,
      "ince": 1051,
      "please": 1052,
      "jo": 1053,
      "doesn": 1054,
      "Ok": 1055,
      "du": 1056,
      "200": 1057,
      "ings": 1058,
      "led": 1059,
      "father": 1060,
      "school": 1061,
      "cal": 1062,
      "par": 1063,
      "times": 1064,
      "Now": 1065,
      "ican": 1066,
      "Re": 1067,
      "next": 1068,
      "nor": 1069,
      "told": 1070,
      "ident": 1071,
      "vie": 1072,
      "saw": 1073,
      "All": 1074,
      "ute": 1075,
      "De": 1076,
      "ins": 1077,
      "THE": 1078,
      "fun": 1079,
      "else": 1080,
      "Amer": 1081,
      "full": 1082,
      "pers": 1083,
      "aw": 1084,
      "wait": 1085,
      "ub": 1086,
      "ket": 1087,
      "pri": 1088,
      "ced": 1089,
      "top": 1090,
      "NAN": 1091,
      "wal": 1092,
      "ame": 1093,
      "hard": 1094,
      "Br": 1095,
      "mhm": 1096,
      "ug": 1097,
      "ele": 1098,
      "18": 1099,
      "always": 1100,
      "rest": 1101,
      "ons": 1102,
      "outh": 1103,
      "til": 1104,
      "vers": 1105,
      "differ": 1106,
      "left": 1107,
      "coming": 1108,
      "born": 1109,
      "beg": 1110,
      "lad": 1111,
      "lt": 1112,
      "ition": 1113,
      "tri": 1114,
      "Ar": 1115,
      "five": 1116,
      "thank": 1117,
      "Mummy": 1118,
      "!\"": 1119,
      "sur": 1120,
      "cat": 1121,
      "pa": 1122,
      "Then": 1123,
      "gone": 1124,
      "high": 1125,
      "reg": 1126,
      "ness": 1127,
      "ations": 1128,
      "took": 1129,
      "ones": 1130,
      "cted": 1131,
      "num": 1132,
      "ched": 1133,
      "known": 1134,
      "gen": 1135,
      "ak": 1136,
      "ung": 1137,
      "fam": 1138,
      "On": 1139,
      "Joh": 1140,
      "money": 1141,
      "quite": 1142,
      "goes": 1143,
      "open": 1144,
      "ane": 1145,
      ",”": 1146,
      "As": 1147,
      "ted": 1148,
      "hear": 1149,
      "----": 1150,
      "OU": 1151,
      "aren": 1152,
      "When": 1153,
      "fl": 1154,
      "round": 1155,
      "ken": 1156,
      "ris": 1157,
      "cess": 1158,
      "cond": 1159,
      "Okay": 1160,
      "form": 1161,
      "ese": 1162,
      "door": 1163,
      "ES": 1164,
      "real": 1165,
      "pick": 1166,
      "stu": 1167,
      "leep": 1168,
      "ctor": 1169,
      "ng": 1170,
      "\".": 1171,
      "cy": 1172,
      "bus": 1173,
      "says": 1174,
      "ished": 1175,
      "sorry": 1176,
      "Er": 1177,
      "mind": 1178,
      "My": 1179,
      "enough": 1180,
      "course": 1181,
      "cri": 1182,
      "remember": 1183,
      "Miss": 1184,
      "John": 1185,
      "May": 1186,
      "Come": 1187,
      "point": 1188,
      "mp": 1189,
      "until": 1190,
      "fall": 1191,
      "cur": 1192,
      "near": 1193,
      "Se": 1194,
      "ters": 1195,
      "table": 1196,
      "Let": 1197,
      "raw": 1198,
      "stay": 1199,
      "gre": 1200,
      "oo": 1201,
      "ach": 1202,
      "vent": 1203,
      "far": 1204,
      "looking": 1205,
      "ER": 1206,
      "Mrs": 1207,
      "sil": 1208,
      "pass": 1209,
      "kill": 1210,
      "Thank": 1211,
      "llo": 1212,
      "gether": 1213,
      "pap": 1214,
      "blo": 1215,
      "ith": 1216,
      "today": 1217,
      "lly": 1218,
      "For": 1219,
      "eyes": 1220,
      "miss": 1221,
      "New": 1222,
      "orning": 1223,
      "nothing": 1224,
      "aught": 1225,
      "together": 1226,
      "ped": 1227,
      "cap": 1228,
      "six": 1229,
      "ON": 1230,
      "belie": 1231,
      "den": 1232,
      "TEA": 1233,
      "each": 1234,
      "uary": 1235,
      "upon": 1236,
      "list": 1237,
      "LL": 1238,
      "ason": 1239,
      "ased": 1240,
      "ama": 1241,
      "asked": 1242,
      "ared": 1243,
      "hur": 1244,
      "seen": 1245,
      "ational": 1246,
      "Mo": 1247,
      "En": 1248,
      "children": 1249,
      "ning": 1250,
      "mb": 1251,
      "few": 1252,
      "yet": 1253,
      "Can": 1254,
      "dear": 1255,
      "sound": 1256,
      "haf": 1257,
      "bir": 1258,
      "mas": 1259,
      "best": 1260,
      "ail": 1261,
      "noise": 1262,
      "cons": 1263,
      "ween": 1264,
      "different": 1265,
      "morning": 1266,
      "getting": 1267,
      "cut": 1268,
      "199": 1269,
      "hafta": 1270,
      "RA": 1271,
      "ult": 1272,
      "spo": 1273,
      "Gr": 1274,
      "key": 1275,
      "ames": 1276,
      "leave": 1277,
      "His": 1278,
      "ister": 1279,
      "ship": 1280,
      "dri": 1281,
      "Mom": 1282,
      "war": 1283,
      "pie": 1284,
      "making": 1285,
      "mil": 1286,
      "At": 1287,
      "main": 1288,
      "ef": 1289,
      "uring": 1290,
      ").": 1291,
      "lar": 1292,
      "chair": 1293,
      "died": 1294,
      "American": 1295,
      "stop": 1296,
      "ING": 1297,
      "sk": 1298,
      "mom": 1299,
      "quest": 1300,
      "once": 1301,
      "makes": 1302,
      "ste": 1303,
      "Ho": 1304,
      "Ind": 1305,
      "Hey": 1306,
      "sy": 1307,
      "une": 1308,
      "foot": 1309,
      "anim": 1310,
      "fi": 1311,
      "both": 1312,
      "half": 1313,
      "small": 1314,
      "press": 1315,
      "bad": 1316,
      "eng": 1317,
      "char": 1318,
      "ures": 1319,
      "himself": 1320,
      "tern": 1321,
      "present": 1322,
      "ross": 1323,
      "between": 1324,
      "Who": 1325,
      "later": 1326,
      "move": 1327,
      "ches": 1328,
      "having": 1329,
      "io": 1330,
      "ring": 1331,
      "heard": 1332,
      "mor": 1333,
      "PAR1": 1334,
      "flo": 1335,
      "sleep": 1336,
      "hands": 1337,
      "heart": 1338,
      "Ste": 1339,
      "young": 1340,
      "Just": 1341,
      "FCH": 1342,
      "follow": 1343,
      "Ma": 1344,
      "without": 1345,
      "Po": 1346,
      "Bo": 1347,
      "actually": 1348,
      "AD": 1349,
      "ump": 1350,
      "person": 1351,
      "pped": 1352,
      "world": 1353,
      "God": 1354,
      "eath": 1355,
      "mus": 1356,
      "dire": 1357,
      "ze": 1358,
      "ular": 1359,
      "Uh": 1360,
      "squ": 1361,
      "dro": 1362,
      "town": 1363,
      "soon": 1364,
      "alright": 1365,
      "ont": 1366,
      "cord": 1367,
      "sort": 1368,
      "dog": 1369,
      "second": 1370,
      "hair": 1371,
      "www": 1372,
      "looked": 1373,
      "Good": 1374,
      "pu": 1375,
      "talking": 1376,
      "hey": 1377,
      "pretty": 1378,
      "Car": 1379,
      "Le": 1380,
      "win": 1381,
      "knew": 1382,
      "maybe": 1383,
      "black": 1384,
      "hor": 1385,
      "against": 1386,
      "moment": 1387,
      "sl": 1388,
      "brother": 1389,
      "everything": 1390,
      "amp": 1391,
      "Ger": 1392,
      "days": 1393,
      "wanted": 1394,
      "ya": 1395,
      "happened": 1396,
      "number": 1397,
      "vi": 1398,
      "tory": 1399,
      "lle": 1400,
      "haven": 1401,
      "fire": 1402,
      "appe": 1403,
      "Mm": 1404,
      "live": 1405,
      "��": 1406,
      "order": 1407,
      "ating": 1408,
      "Ed": 1409,
      "meet": 1410,
      "OR": 1411,
      "gy": 1412,
      "ises": 1413,
      "\",": 1414,
      "Jo": 1415,
      "ered": 1416,
      "Daddy": 1417,
      "Right": 1418,
      "pop": 1419,
      "Coun": 1420,
      "hour": 1421,
      "spea": 1422,
      "walk": 1423,
      "United": 1424,
      "ial": 1425,
      "ner": 1426,
      "ject": 1427,
      "Are": 1428,
      "ls": 1429,
      "itch": 1430,
      "Where": 1431,
      "To": 1432,
      "aut": 1433,
      "cover": 1434,
      "wards": 1435,
      "gave": 1436,
      "pen": 1437,
      "comes": 1438,
      "bring": 1439,
      "interest": 1440,
      "paper": 1441,
      "eight": 1442,
      "val": 1443,
      "Some": 1444,
      "line": 1445,
      "Har": 1446,
      "ines": 1447,
      "state": 1448,
      "),": 1449,
      "game": 1450,
      "train": 1451,
      "sub": 1452,
      "break": 1453,
      "ants": 1454,
      "family": 1455,
      "food": 1456,
      "eas": 1457,
      "pict": 1458,
      "city": 1459,
      "fect": 1460,
      "lay": 1461,
      "ground": 1462,
      "cial": 1463,
      "dar": 1464,
      "Not": 1465,
      "thir": 1466,
      "bar": 1467,
      "boys": 1468,
      "Sh": 1469,
      "whe": 1470,
      "trying": 1471,
      "believe": 1472,
      "cept": 1473,
      "stick": 1474,
      "word": 1475,
      "bably": 1476,
      "iness": 1477,
      "kid": 1478,
      "202": 1479,
      "pon": 1480,
      "vol": 1481,
      "dec": 1482,
      "cks": 1483,
      "answer": 1484,
      "wonder": 1485,
      "ual": 1486,
      "story": 1487,
      "bye": 1488,
      "along": 1489,
      "playing": 1490,
      "dow": 1491,
      "ither": 1492,
      "qui": 1493,
      "matter": 1494,
      "198": 1495,
      "ike": 1496,
      "Com": 1497,
      "almost": 1498,
      "Engl": 1499,
      "whole": 1500,
      "close": 1501,
      "since": 1502,
      "phone": 1503,
      "GRA": 1504,
      "understand": 1505,
      "wasn": 1506,
      "dam": 1507,
      "leg": 1508,
      "draw": 1509,
      "fact": 1510,
      "Fe": 1511,
      "Did": 1512,
      "band": 1513,
      "incl": 1514,
      "swe": 1515,
      "pull": 1516,
      "EN": 1517,
      "igh": 1518,
      "sel": 1519,
      "dist": 1520,
      "fast": 1521,
      "plan": 1522,
      "Nor": 1523,
      "ics": 1524,
      "ield": 1525,
      "Fo": 1526,
      "pain": 1527,
      "drink": 1528,
      "tive": 1529,
      "sol": 1530,
      "fish": 1531,
      "da": 1532,
      "blue": 1533,
      "started": 1534,
      "sent": 1535,
      "build": 1536,
      "ised": 1537,
      "Will": 1538,
      "job": 1539,
      "10": 1540,
      "One": 1541,
      "return": 1542,
      "ica": 1543,
      "saying": 1544,
      "cup": 1545,
      "cus": 1546,
      "week": 1547,
      "woman": 1548,
      "already": 1549,
      "hope": 1550,
      "ork": 1551,
      "happy": 1552,
      "States": 1553,
      "stuff": 1554,
      "pur": 1555,
      "probably": 1556,
      "guess": 1557,
      "darling": 1558,
      "Look": 1559,
      "sign": 1560,
      "Ju": 1561,
      "ina": 1562,
      "ran": 1563,
      "played": 1564,
      "wouldn": 1565,
      "II": 1566,
      "ster": 1567,
      "voice": 1568,
      "eral": 1569,
      "pose": 1570,
      "ouch": 1571,
      "wel": 1572,
      "gas": 1573,
      "mine": 1574,
      "bur": 1575,
      "ned": 1576,
      "Tom": 1577,
      "serv": 1578,
      "tre": 1579,
      "pay": 1580,
      "clear": 1581,
      "till": 1582,
      "Ben": 1583,
      "white": 1584,
      "fort": 1585,
      "possi": 1586,
      "Me": 1587,
      "boat": 1588,
      "plac": 1589,
      "oc": 1590,
      "wrong": 1591,
      "bot": 1592,
      "feet": 1593,
      "agg": 1594,
      "minute": 1595,
      "poor": 1596,
      "ages": 1597,
      "Jap": 1598,
      "197": 1599,
      "means": 1600,
      "ments": 1601,
      "proble": 1602,
      "contin": 1603,
      "case": 1604,
      "oup": 1605,
      "17": 1606,
      "RE": 1607,
      "road": 1608,
      "sim": 1609,
      "vision": 1610,
      "taken": 1611,
      "certain": 1612,
      "movie": 1613,
      "Con": 1614,
      "cli": 1615,
      "tle": 1616,
      "fully": 1617,
      "roll": 1618,
      "month": 1619,
      "mag": 1620,
      "?”": 1621,
      "during": 1622,
      "mis": 1623,
      "floor": 1624,
      "az": 1625,
      "inner": 1626,
      "song": 1627,
      "nat": 1628,
      "wish": 1629,
      "ities": 1630,
      "pat": 1631,
      "TO": 1632,
      "fine": 1633,
      "ake": 1634,
      "ital": 1635,
      "plain": 1636,
      "ier": 1637,
      "gent": 1638,
      "KF": 1639,
      "Or": 1640,
      "ream": 1641,
      "itting": 1642,
      "quick": 1643,
      "cry": 1644,
      "music": 1645,
      "doll": 1646,
      "CO": 1647,
      "vill": 1648,
      "lost": 1649,
      "unt": 1650,
      "idea": 1651,
      "grand": 1652,
      "words": 1653,
      "fair": 1654,
      "hum": 1655,
      "gotta": 1656,
      "undred": 1657,
      "mouth": 1658,
      "beaut": 1659,
      "death": 1660,
      "haps": 1661,
      "Dav": 1662,
      "Mic": 1663,
      "US": 1664,
      "hind": 1665,
      "brought": 1666,
      "view": 1667,
      "turned": 1668,
      "became": 1669,
      "rather": 1670,
      "pect": 1671,
      "green": 1672,
      "bles": 1673,
      "yourself": 1674,
      "ley": 1675,
      "seemed": 1676,
      "YOU": 1677,
      "girls": 1678,
      "throw": 1679,
      "fro": 1680,
      "IT": 1681,
      "lead": 1682,
      "wood": 1683,
      "ended": 1684,
      "push": 1685,
      "hundred": 1686,
      "gar": 1687,
      "mark": 1688,
      "sir": 1689,
      "fic": 1690,
      "Af": 1691,
      "PAR2": 1692,
      "short": 1693,
      "ries": 1694,
      "singing": 1695,
      "vid": 1696,
      "hy": 1697,
      "net": 1698,
      "team": 1699,
      "lean": 1700,
      "taking": 1701,
      "Ge": 1702,
      "anger": 1703,
      "friends": 1704,
      "daddy": 1705,
      "dress": 1706,
      "nam": 1707,
      "began": 1708,
      "Pe": 1709,
      "produ": 1710,
      "change": 1711,
      "hot": 1712,
      "cas": 1713,
      "sw": 1714,
      "poin": 1715,
      "sof": 1716,
      "Man": 1717,
      "bear": 1718,
      "lady": 1719,
      "fight": 1720,
      "party": 1721,
      "lear": 1722,
      "kiss": 1723,
      "Char": 1724,
      "front": 1725,
      "org": 1726,
      "DAD": 1727,
      "country": 1728,
      "ru": 1729,
      "app": 1730,
      "15": 1731,
      "dat": 1732,
      "ford": 1733,
      "196": 1734,
      "UN": 1735,
      "fav": 1736,
      "wants": 1737,
      "color": 1738,
      "sc": 1739,
      "exc": 1740,
      "myself": 1741,
      "wenty": 1742,
      "given": 1743,
      "outside": 1744,
      "rep": 1745,
      "]?": 1746,
      "late": 1747,
      "cir": 1748,
      "ied": 1749,
      "sat": 1750,
      "dead": 1751,
      "Ex": 1752,
      "board": 1753,
      "Bom": 1754,
      "York": 1755,
      "fac": 1756,
      "area": 1757,
      "thy": 1758,
      "ene": 1759,
      "posed": 1760,
      "funny": 1761,
      "Bar": 1762,
      "aser": 1763,
      "ham": 1764,
      "question": 1765,
      "utes": 1766,
      "tele": 1767,
      "behind": 1768,
      "wever": 1769,
      "allow": 1770,
      "write": 1771,
      "cream": 1772,
      "trict": 1773,
      "After": 1774,
      "Here": 1775,
      "ety": 1776,
      "happen": 1777,
      "seven": 1778,
      "picture": 1779,
      "cher": 1780,
      "import": 1781,
      "Your": 1782,
      "cil": 1783,
      "sen": 1784,
      "RS": 1785,
      "LE": 1786,
      "step": 1787,
      "ops": 1788,
      "oud": 1789,
      "offic": 1790,
      "Bart": 1791,
      "County": 1792,
      "cu": 1793,
      "rid": 1794,
      "aged": 1795,
      "writ": 1796,
      "gets": 1797,
      "selves": 1798,
      "fell": 1799,
      "vocal": 1800,
      "base": 1801,
      "Her": 1802,
      "toys": 1803,
      "chang": 1804,
      "Bomba": 1805,
      "bruary": 1806,
      "field": 1807,
      "Mommy": 1808,
      "February": 1809,
      "rel": 1810,
      "aim": 1811,
      "often": 1812,
      "Japan": 1813,
      "felt": 1814,
      "ory": 1815,
      "whis": 1816,
      "iful": 1817,
      "cold": 1818,
      "business": 1819,
      "stru": 1820,
      "airs": 1821,
      "deal": 1822,
      "eter": 1823,
      "Jan": 1824,
      "Pro": 1825,
      "gn": 1826,
      "polit": 1827,
      "piece": 1828,
      "AS": 1829,
      "met": 1830,
      "duck": 1831,
      "ouble": 1832,
      "sometimes": 1833,
      "gover": 1834,
      "animals": 1835,
      "rain": 1836,
      "silver": 1837,
      "ander": 1838,
      "mommy": 1839,
      "que": 1840,
      "guys": 1841,
      "yellow": 1842,
      "hello": 1843,
      "minutes": 1844,
      "ents": 1845,
      "Fraser": 1846,
      "ann": 1847,
      "ago": 1848,
      "teen": 1849,
      "leav": 1850,
      "Gu": 1851,
      "Je": 1852,
      "speak": 1853,
      "ond": 1854,
      "lease": 1855,
      "rew": 1856,
      "pot": 1857,
      "sun": 1858,
      "zz": 1859,
      "twenty": 1860,
      "bas": 1861,
      "someone": 1862,
      "listen": 1863,
      "law": 1864,
      "Get": 1865,
      "reet": 1866,
      "Dad": 1867,
      "cor": 1868,
      "ined": 1869,
      "strong": 1870,
      "essie": 1871,
      "Chris": 1872,
      "either": 1873,
      "Pr": 1874,
      "RI": 1875,
      "gun": 1876,
      "EL": 1877,
      "mess": 1878,
      "ino": 1879,
      "publ": 1880,
      "cra": 1881,
      "ustr": 1882,
      "morrow": 1883,
      "power": 1884,
      "flow": 1885,
      "least": 1886,
      "couldn": 1887,
      "12": 1888,
      "enn": 1889,
      "ref": 1890,
      "AND": 1891,
      "fig": 1892,
      "fif": 1893,
      "horse": 1894,
      "ony": 1895,
      "fing": 1896,
      "LD": 1897,
      "die": 1898,
      "David": 1899,
      "tree": 1900,
      "Cha": 1901,
      "mill": 1902,
      "takes": 1903,
      "large": 1904,
      "cook": 1905,
      "ief": 1906,
      "mid": 1907,
      "ality": 1908,
      "wife": 1909,
      "dad": 1910,
      "unch": 1911,
      "tem": 1912,
      "ards": 1913,
      "With": 1914,
      "guy": 1915,
      "hurt": 1916,
      "Sp": 1917,
      "birth": 1918,
      "ik": 1919,
      "alone": 1920,
      "Ah": 1921,
      "16": 1922,
      "Par": 1923,
      "ivers": 1924,
      "grap": 1925,
      "peri": 1926,
      "prom": 1927,
      "bes": 1928,
      "ili": 1929,
      "true": 1930,
      "beautiful": 1931,
      "Bessie": 1932,
      "ative": 1933,
      "inside": 1934,
      "reason": 1935,
      "rist": 1936,
      "books": 1937,
      "others": 1938,
      "star": 1939,
      "tired": 1940,
      "ju": 1941,
      "buy": 1942,
      "illy": 1943,
      "Bob": 1944,
      "wear": 1945,
      "ific": 1946,
      "War": 1947,
      "dark": 1948,
      "dinner": 1949,
      "fuck": 1950,
      "suc": 1951,
      "stead": 1952,
      "important": 1953,
      "ider": 1954,
      "ized": 1955,
      "letter": 1956,
      "cam": 1957,
      "ME": 1958,
      "Ke": 1959,
      "emp": 1960,
      "--------": 1961,
      "Ber": 1962,
      "herself": 1963,
      "joy": 1964,
      "sum": 1965,
      "working": 1966,
      "hon": 1967,
      "possible": 1968,
      "includ": 1969,
      "Because": 1970,
      "Te": 1971,
      "points": 1972,
      "Ab": 1973,
      "finished": 1974,
      "blow": 1975,
      "oper": 1976,
      "Tho": 1977,
      "bag": 1978,
      "195": 1979,
      "clean": 1980,
      "stairs": 1981,
      "rown": 1982,
      "soft": 1983,
      "Wor": 1984,
      "dle": 1985,
      "Lu": 1986,
      "Per": 1987,
      "continu": 1988,
      "sister": 1989,
      "30": 1990,
      "grow": 1991,
      "record": 1992,
      "toy": 1993,
      "fly": 1994,
      "velo": 1995,
      "raid": 1996,
      "Of": 1997,
      "check": 1998,
      "ana": 1999,
      "early": 2000,
      "arch": 2001,
      "fre": 2002,
      "inde": 2003,
      "icip": 2004,
      "seat": 2005,
      "class": 2006,
      "angu": 2007,
      "ix": 2008,
      "Erm": 2009,
      "Elean": 2010,
      "ison": 2011,
      "Jack": 2012,
      "rece": 2013,
      "fellow": 2014,
      "appro": 2015,
      "ousand": 2016,
      "January": 2017,
      "AP": 2018,
      "Eleanor": 2019,
      "daught": 2020,
      "exam": 2021,
      "ending": 2022,
      "ional": 2023,
      "sitting": 2024,
      "van": 2025,
      "ney": 2026,
      "OF": 2027,
      "ately": 2028,
      "window": 2029,
      "free": 2030,
      "ude": 2031,
      "bor": 2032,
      "sever": 2033,
      "vel": 2034,
      "river": 2035,
      "TER": 2036,
      "iously": 2037,
      "tried": 2038,
      "among": 2039,
      "bath": 2040,
      "ery": 2041,
      "log": 2042,
      "English": 2043,
      "mun": 2044,
      "touch": 2045,
      "va": 2046,
      "hael": 2047,
      "bow": 2048,
      "lived": 2049,
      "depart": 2050,
      "ists": 2051,
      "tee": 2052,
      "ding": 2053,
      "Ale": 2054,
      "across": 2055,
      "ete": 2056,
      "corn": 2057,
      "sweet": 2058,
      "somebody": 2059,
      "thes": 2060,
      "chance": 2061,
      "Mon": 2062,
      "company": 2063,
      "gram": 2064,
      "ides": 2065,
      "football": 2066,
      "ked": 2067,
      "national": 2068,
      "tru": 2069,
      "claim": 2070,
      "pping": 2071,
      "count": 2072,
      "cast": 2073,
      "glad": 2074,
      "held": 2075,
      "wind": 2076,
      "nine": 2077,
      "colle": 2078,
      "rent": 2079,
      "Tr": 2080,
      "note": 2081,
      "Apri": 2082,
      "problem": 2083,
      "000": 2084,
      "abo": 2085,
      "respon": 2086,
      "April": 2087,
      "King": 2088,
      "mit": 2089,
      "test": 2090,
      "bert": 2091,
      "wash": 2092,
      "ey": 2093,
      "shi": 2094,
      "194": 2095,
      "attack": 2096,
      "thousand": 2097,
      "Sir": 2098,
      "Mc": 2099,
      "URS": 2100,
      "seems": 2101,
      "milk": 2102,
      "Ph": 2103,
      "ator": 2104,
      "Michael": 2105,
      "ek": 2106,
      "Nove": 2107,
      "killed": 2108,
      "Bl": 2109,
      "ices": 2110,
      "idge": 2111,
      "hit": 2112,
      "frog": 2113,
      "ald": 2114,
      "creat": 2115,
      "arr": 2116,
      "November": 2117,
      "group": 2118,
      "wall": 2119,
      "Every": 2120,
      "cot": 2121,
      "perhaps": 2122,
      "favor": 2123,
      "police": 2124,
      "thinking": 2125,
      "2020": 2126,
      "moved": 2127,
      "cray": 2128,
      "langu": 2129,
      "sed": 2130,
      "tomorrow": 2131,
      "terri": 2132,
      "AM": 2133,
      "Cap": 2134,
      "ged": 2135,
      "cto": 2136,
      "zy": 2137,
      "lots": 2138,
      "knows": 2139,
      "cow": 2140,
      "stem": 2141,
      "Brit": 2142,
      "several": 2143,
      "stra": 2144,
      "position": 2145,
      "ale": 2146,
      "aul": 2147,
      "ara": 2148,
      "Jane": 2149,
      "nment": 2150,
      "oub": 2151,
      "series": 2152,
      "ali": 2153,
      "doctor": 2154,
      "ution": 2155,
      "yours": 2156,
      "ize": 2157,
      "ulation": 2158,
      "fix": 2159,
      "ically": 2160,
      "quiet": 2161,
      "OK": 2162,
      "Have": 2163,
      "blood": 2164,
      "ances": 2165,
      "lied": 2166,
      "north": 2167,
      "usually": 2168,
      "puts": 2169,
      "ooh": 2170,
      "chi": 2171,
      "bri": 2172,
      "surpr": 2173,
      "daughter": 2174,
      "2021": 2175,
      "cou": 2176,
      "nin": 2177,
      "France": 2178,
      "aggie": 2179,
      "era": 2180,
      "pleas": 2181,
      "kept": 2182,
      "unk": 2183,
      "By": 2184,
      "Maggie": 2185,
      "fit": 2186,
      "district": 2187,
      "lovely": 2188,
      "Please": 2189,
      "prof": 2190,
      "past": 2191,
      "nose": 2192,
      "mot": 2193,
      "ury": 2194,
      "Mama": 2195,
      "os": 2196,
      "living": 2197,
      "July": 2198,
      "14": 2199,
      "Grand": 2200,
      "named": 2201,
      "Pat": 2202,
      "tra": 2203,
      "worth": 2204,
      "running": 2205,
      "ided": 2206,
      "wow": 2207,
      "heav": 2208,
      "ural": 2209,
      "eating": 2210,
      "Steven": 2211,
      "Christ": 2212,
      "itten": 2213,
      "remain": 2214,
      "rench": 2215,
      "iver": 2216,
      "carry": 2217,
      "tw": 2218,
      "county": 2219,
      "afraid": 2220,
      "kno": 2221,
      "cing": 2222,
      "sn": 2223,
      "uro": 2224,
      "hang": 2225,
      "laughing": 2226,
      "iversity": 2227,
      "rele": 2228,
      "Hi": 2229,
      "sold": 2230,
      "uhhuh": 2231,
      "pes": 2232,
      "La": 2233,
      "jor": 2234,
      "World": 2235,
      "enter": 2236,
      "straight": 2237,
      "rock": 2238,
      "Dr": 2239,
      "Sep": 2240,
      "tie": 2241,
      "exp": 2242,
      "fil": 2243,
      "actor": 2244,
      "pig": 2245,
      "seem": 2246,
      "Foot": 2247,
      "inst": 2248,
      "report": 2249,
      "charac": 2250,
      "birthday": 2251,
      "ler": 2252,
      "commun": 2253,
      "forward": 2254,
      "using": 2255,
      "counter": 2256,
      "mur": 2257,
      "trans": 2258,
      "ctive": 2259,
      "ility": 2260,
      "thor": 2261,
      "ilt": 2262,
      "conf": 2263,
      "ID": 2264,
      "trouble": 2265,
      "standing": 2266,
      "west": 2267,
      "pet": 2268,
      "ient": 2269,
      "tom": 2270,
      "within": 2271,
      "organ": 2272,
      "dden": 2273,
      "vide": 2274,
      "worked": 2275,
      "Octo": 2276,
      "ured": 2277,
      "ends": 2278,
      "months": 2279,
      "Alex": 2280,
      "October": 2281,
      "fee": 2282,
      "var": 2283,
      "urch": 2284,
      "whether": 2285,
      "hours": 2286,
      "covered": 2287,
      "spec": 2288,
      "married": 2289,
      "ism": 2290,
      "become": 2291,
      "careful": 2292,
      "whisper": 2293,
      "11": 2294,
      "bum": 2295,
      "swi": 2296,
      "stood": 2297,
      "cannot": 2298,
      "women": 2299,
      "putting": 2300,
      "page": 2301,
      "These": 2302,
      "ggy": 2303,
      "lives": 2304,
      "inning": 2305,
      "sounds": 2306,
      "slow": 2307,
      "sudden": 2308,
      "North": 2309,
      "ib": 2310,
      "rence": 2311,
      "Col": 2312,
      "rad": 2313,
      "aster": 2314,
      "everybody": 2315,
      "Aug": 2316,
      "Cl": 2317,
      ".'": 2318,
      "cried": 2319,
      "dream": 2320,
      "partic": 2321,
      "develo": 2322,
      "tember": 2323,
      "clothes": 2324,
      "special": 2325,
      "!”": 2326,
      "answered": 2327,
      "AL": 2328,
      "suppose": 2329,
      "post": 2330,
      "passed": 2331,
      "actly": 2332,
      "broken": 2333,
      "catch": 2334,
      "Adam": 2335,
      "ED": 2336,
      "themselves": 2337,
      "fur": 2338,
      "sea": 2339,
      "len": 2340,
      "ban": 2341,
      "September": 2342,
      "noon": 2343,
      "arms": 2344,
      "sand": 2345,
      "refer": 2346,
      "Hello": 2347,
      "shout": 2348,
      "sings": 2349,
      "13": 2350,
      "Lon": 2351,
      "Maybe": 2352,
      "Great": 2353,
      "proper": 2354,
      "thern": 2355,
      "easy": 2356,
      "ician": 2357,
      "system": 2358,
      "South": 2359,
      "orge": 2360,
      "shot": 2361,
      "fill": 2362,
      "Sha": 2363,
      "station": 2364,
      "del": 2365,
      "August": 2366,
      "issu": 2367,
      "department": 2368,
      "arri": 2369,
      "ties": 2370,
      "above": 2371,
      "reco": 2372,
      "feeling": 2373,
      "hors": 2374,
      "irt": 2375,
      "ext": 2376,
      "waiting": 2377,
      "Any": 2378,
      "egg": 2379,
      "formed": 2380,
      "Flo": 2381,
      "sal": 2382,
      "quar": 2383,
      "hung": 2384,
      "street": 2385,
      "kids": 2386,
      "cket": 2387,
      "couple": 2388,
      "Ac": 2389,
      "comple": 2390,
      "television": 2391,
      "iam": 2392,
      "rup": 2393,
      "Edna": 2394,
      "Dan": 2395,
      "danger": 2396,
      "appeared": 2397,
      "inv": 2398,
      "gasps": 2399,
      "burn": 2400,
      "ath": 2401,
      "success": 2402,
      "Pres": 2403,
      "See": 2404,
      "Lea": 2405,
      "cum": 2406,
      "clock": 2407,
      "ev": 2408,
      "Qu": 2409,
      "utter": 2410,
      "gain": 2411,
      "changed": 2412,
      "Ser": 2413,
      "WH": 2414,
      "eye": 2415,
      "mal": 2416,
      "London": 2417,
      "Rich": 2418,
      "ians": 2419,
      "noises": 2420,
      "bell": 2421,
      "orig": 2422,
      "truck": 2423,
      "diffic": 2424,
      "appear": 2425,
      "million": 2426,
      "sou": 2427,
      "ee": 2428,
      "cked": 2429,
      "March": 2430,
      "Sw": 2431,
      "tries": 2432,
      "tiv": 2433,
      "finish": 2434,
      "likes": 2435,
      "cool": 2436,
      "Bro": 2437,
      "gra": 2438,
      "pound": 2439,
      "cell": 2440,
      "object": 2441,
      "ax": 2442,
      "25": 2443,
      "sna": 2444,
      "ived": 2445,
      "giving": 2446,
      "June": 2447,
      "government": 2448,
      "chick": 2449,
      "office": 2450,
      "tro": 2451,
      "itty": 2452,
      "released": 2453,
      "hus": 2454,
      "needs": 2455,
      "gest": 2456,
      "uc": 2457,
      "reach": 2458,
      "cross": 2459,
      "places": 2460,
      "ium": 2461,
      "babbles": 2462,
      "gold": 2463,
      "'.": 2464,
      "BE": 2465,
      "GH": 2466,
      "season": 2467,
      "whatever": 2468,
      "City": 2469,
      "lid": 2470,
      "Indian": 2471,
      "eh": 2472,
      "luck": 2473,
      "boo": 2474,
      "former": 2475,
      "sport": 2476,
      "por": 2477,
      "gentle": 2478,
      "roy": 2479,
      "cident": 2480,
      "mad": 2481,
      "ater": 2482,
      "worry": 2483,
      "fle": 2484,
      "cos": 2485,
      "haha": 2486,
      "perfect": 2487,
      "aint": 2488,
      "origin": 2489,
      "doub": 2490,
      "24": 2491,
      "py": 2492,
      "event": 2493,
      "chief": 2494,
      "gue": 2495,
      "bank": 2496,
      "however": 2497,
      "tract": 2498,
      "farm": 2499,
      "holds": 2500,
      "From": 2501,
      "French": 2502,
      "SS": 2503,
      "cient": 2504,
      "support": 2505,
      ",--": 2506,
      "telling": 2507,
      "miles": 2508,
      "tonight": 2509,
      "Dece": 2510,
      "West": 2511,
      "ctions": 2512,
      "written": 2513,
      "za": 2514,
      "soci": 2515,
      "wild": 2516,
      "Frank": 2517,
      "Captain": 2518,
      "dest": 2519,
      "forgot": 2520,
      "paren": 2521,
      "ering": 2522,
      "whom": 2523,
      "December": 2524,
      "plane": 2525,
      "recogn": 2526,
      "Sun": 2527,
      "ait": 2528,
      "bra": 2529,
      "vocalises": 2530,
      "spl": 2531,
      "gener": 2532,
      "shut": 2533,
      "turns": 2534,
      "yo": 2535,
      "towards": 2536,
      "ays": 2537,
      "2018": 2538,
      "particular": 2539,
      "Jose": 2540,
      "Rus": 2541,
      "whose": 2542,
      "caught": 2543,
      "meant": 2544,
      "explain": 2545,
      "shoes": 2546,
      "language": 2547,
      "sight": 2548,
      "deep": 2549,
      "anyway": 2550,
      "building": 2551,
      "def": 2552,
      "Euro": 2553,
      "Paul": 2554,
      "ention": 2555,
      "tin": 2556,
      "shar": 2557,
      "current": 2558,
      "mbers": 2559,
      "Pol": 2560,
      "uk": 2561,
      "works": 2562,
      "Joe": 2563,
      "nur": 2564,
      "nearly": 2565,
      "alth": 2566,
      "hid": 2567,
      "jump": 2568,
      "pal": 2569,
      "CHILD": 2570,
      "master": 2571,
      "COL": 2572,
      "vin": 2573,
      "enjoy": 2574,
      "ceed": 2575,
      "returned": 2576,
      "ride": 2577,
      "terday": 2578,
      "icy": 2579,
      "thirty": 2580,
      "ady": 2581,
      "Dis": 2582,
      "municip": 2583,
      "afternoon": 2584,
      "lor": 2585,
      "sick": 2586,
      "iron": 2587,
      "silence": 2588,
      "Thanks": 2589,
      "prote": 2590,
      "Chi": 2591,
      "pract": 2592,
      "population": 2593,
      "hun": 2594,
      "ror": 2595,
      "news": 2596,
      "agon": 2597,
      "fear": 2598,
      "husband": 2599,
      "broke": 2600,
      "crew": 2601,
      "Mum": 2602,
      "193": 2603,
      "quickly": 2604,
      "]!": 2605,
      "program": 2606,
      "Rep": 2607,
      "bey": 2608,
      "University": 2609,
      "attle": 2610,
      "kitch": 2611,
      "send": 2612,
      "mach": 2613,
      "sell": 2614,
      "mam": 2615,
      "tur": 2616,
      "Ill": 2617,
      "VE": 2618,
      "snow": 2619,
      "scar": 2620,
      "agree": 2621,
      "Min": 2622,
      "moun": 2623,
      "forget": 2624,
      "tape": 2625,
      "Thomas": 2626,
      "OW": 2627,
      "crying": 2628,
      "public": 2629,
      "National": 2630,
      "spir": 2631,
      "mic": 2632,
      "except": 2633,
      "British": 2634,
      "kitchen": 2635,
      "fat": 2636,
      "offee": 2637,
      "Jim": 2638,
      "sus": 2639,
      "built": 2640,
      "ply": 2641,
      "drive": 2642,
      "crayon": 2643,
      "arden": 2644,
      "express": 2645,
      "exactly": 2646,
      "toward": 2647,
      "2019": 2648,
      "ahead": 2649,
      "sugg": 2650,
      "hosp": 2651,
      "safe": 2652,
      "stri": 2653,
      "rote": 2654,
      "crat": 2655,
      "longer": 2656,
      "ES_": 2657,
      "WE": 2658,
      "ula": 2659,
      "childes": 2660,
      "CHILDES_": 2661,
      "ST": 2662,
      "zer": 2663,
      "learn": 2664,
      "character": 2665,
      "island": 2666,
      "adv": 2667,
      "concer": 2668,
      "compan": 2669,
      "ping": 2670,
      "following": 2671,
      "instead": 2672,
      "List": 2673,
      "bat": 2674,
      "suggest": 2675,
      "HE": 2676,
      "ai": 2677,
      "rol": 2678,
      "pretend": 2679,
      "claimed": 2680,
      "cake": 2681,
      "monkey": 2682,
      "logy": 2683,
      "moving": 2684,
      "evening": 2685,
      "ible": 2686,
      "save": 2687,
      "figure": 2688,
      "sli": 2689,
      "butter": 2690,
      "reek": 2691,
      "replied": 2692,
      "Am": 2693,
      "iling": 2694,
      "region": 2695,
      "wrote": 2696,
      "cially": 2697,
      "anyone": 2698,
      "ives": 2699,
      "trust": 2700,
      "ELS": 2701,
      "vince": 2702,
      "village": 2703,
      "England": 2704,
      "shoot": 2705,
      "pieces": 2706,
      "middle": 2707,
      "50": 2708,
      "ils": 2709,
      "expect": 2710,
      "yesterday": 2711,
      "Brad": 2712,
      "Phil": 2713,
      "ben": 2714,
      "equ": 2715,
      "happens": 2716,
      "IC": 2717,
      "treat": 2718,
      "members": 2719,
      "iled": 2720,
      "lla": 2721,
      "interested": 2722,
      "complete": 2723,
      "23": 2724,
      "dom": 2725,
      "kick": 2726,
      "stuck": 2727,
      "rie": 2728,
      "decided": 2729,
      "coffee": 2730,
      "lin": 2731,
      "address": 2732,
      "Like": 2733,
      "Two": 2734,
      "meeting": 2735,
      "service": 2736,
      "heavy": 2737,
      "juice": 2738,
      "ges": 2739,
      "flu": 2740,
      "estern": 2741,
      "neigh": 2742,
      "prin": 2743,
      "games": 2744,
      "hell": 2745,
      "acy": 2746,
      "reached": 2747,
      "picks": 2748,
      "ga": 2749,
      "ples": 2750,
      "commune": 2751,
      "mpion": 2752,
      "George": 2753,
      "21": 2754,
      "kne": 2755,
      "human": 2756,
      "club": 2757,
      "Joseph": 2758,
      "bal": 2759,
      "bly": 2760,
      "uation": 2761,
      "search": 2762,
      "opened": 2763,
      "Europe": 2764,
      "silly": 2765,
      "third": 2766,
      "cost": 2767,
      "Ad": 2768,
      "supposed": 2769,
      "doubt": 2770,
      "Sorry": 2771,
      "mes": 2772,
      "ife": 2773,
      "glass": 2774,
      "ses": 2775,
      "thro": 2776,
      "CHAP": 2777,
      "consider": 2778,
      "mir": 2779,
      "beat": 2780,
      "match": 2781,
      "fail": 2782,
      "jack": 2783,
      "tick": 2784,
      "god": 2785,
      "cries": 2786,
      "followed": 2787,
      "legs": 2788,
      "somewhere": 2789,
      "wheel": 2790,
      "loved": 2791,
      "2022": 2792,
      "ues": 2793,
      "favorite": 2794,
      "Florence": 2795,
      "CHAPTER": 2796,
      "hole": 2797,
      "pardon": 2798,
      "certainly": 2799,
      "sty": 2800,
      "mission": 2801,
      "President": 2802,
      "sex": 2803,
      "ada": 2804,
      "reading": 2805,
      "solute": 2806,
      "NA": 2807,
      "pack": 2808,
      "stopped": 2809,
      "ALL": 2810,
      "Wal": 2811,
      "allowed": 2812,
      "general": 2813,
      "breakfast": 2814,
      "Tell": 2815,
      "itted": 2816,
      "strange": 2817,
      "super": 2818,
      "itor": 2819,
      "based": 2820,
      "warm": 2821,
      "teacher": 2822,
      "indeed": 2823,
      "bread": 2824,
      "ets": 2825,
      "animal": 2826,
      "bang": 2827,
      "Really": 2828,
      "Sam": 2829,
      "umb": 2830,
      "dry": 2831,
      "rap": 2832,
      "belong": 2833,
      "president": 2834,
      "Even": 2835,
      "prison": 2836,
      "profess": 2837,
      "Aunt": 2838,
      "ime": 2839,
      "pan": 2840,
      "ences": 2841,
      "ently": 2842,
      "sco": 2843,
      "although": 2844,
      "lunch": 2845,
      "major": 2846,
      "ded": 2847,
      "gate": 2848,
      "sense": 2849,
      "camera": 2850,
      "letters": 2851,
      "Uncle": 2852,
      "uel": 2853,
      "LA": 2854,
      "single": 2855,
      "secret": 2856,
      "William": 2857,
      "mum": 2858,
      "type": 2859,
      "ker": 2860,
      "Dor": 2861,
      "bought": 2862,
      "lying": 2863,
      "camp": 2864,
      "Em": 2865,
      "Take": 2866,
      "pected": 2867,
      "stit": 2868,
      "bud": 2869,
      "everyone": 2870,
      "Mal": 2871,
      "sme": 2872,
      "sian": 2873,
      "brown": 2874,
      "placed": 2875,
      "ships": 2876,
      "necess": 2877,
      "mention": 2878,
      "Eve": 2879,
      "crow": 2880,
      "wide": 2881,
      "inform": 2882,
      "local": 2883,
      "design": 2884,
      "Wait": 2885,
      "non": 2886,
      "writing": 2887,
      "bled": 2888,
      "leaving": 2889,
      "rub": 2890,
      "weeks": 2891,
      "cough": 2892,
      "received": 2893,
      "Peter": 2894,
      "cab": 2895,
      "onel": 2896,
      "leaves": 2897,
      "ense": 2898,
      "watches": 2899,
      "cro": 2900,
      "scare": 2901,
      "James": 2902,
      "cand": 2903,
      "tic": 2904,
      "period": 2905,
      "28": 2906,
      "Ear": 2907,
      "hu": 2908,
      "smo": 2909,
      "trave": 2910,
      "engine": 2911,
      "27": 2912,
      "nia": 2913,
      "rul": 2914,
      "nel": 2915,
      "brush": 2916,
      "holding": 2917,
      "26": 2918,
      "honey": 2919,
      "force": 2920,
      "ming": 2921,
      "sam": 2922,
      "sess": 2923,
      "including": 2924,
      "sad": 2925,
      "finger": 2926,
      "Footnote": 2927,
      "Jwww": 2928,
      "Roy": 2929,
      "Alexander": 2930,
      "bright": 2931,
      "yer": 2932,
      "neck": 2933,
      "appoint": 2934,
      "Gen": 2935,
      "fifty": 2936,
      "example": 2937,
      "har": 2938,
      "slight": 2939,
      "bull": 2940,
      "served": 2941,
      "suit": 2942,
      "0s": 2943,
      "remark": 2944,
      "decl": 2945,
      "career": 2946,
      "orange": 2947,
      "politician": 2948,
      "Che": 2949,
      "lies": 2950,
      "municipality": 2951,
      "ining": 2952,
      "represent": 2953,
      "apart": 2954,
      "Mad": 2955,
      "hous": 2956,
      "bottom": 2957,
      "Hall": 2958,
      "bridge": 2959,
      "lose": 2960,
      "nut": 2961,
      "ubl": 2962,
      "action": 2963,
      "wake": 2964,
      "descri": 2965,
      "ior": 2966,
      "wise": 2967,
      "crazy": 2968,
      "JW": 2969,
      "bird": 2970,
      "German": 2971,
      "history": 2972,
      "author": 2973,
      "Christmas": 2974,
      "Steve": 2975,
      "29": 2976,
      "Cali": 2977,
      "Ell": 2978,
      "Ha": 2979,
      "Ko": 2980,
      "bers": 2981,
      "common": 2982,
      "suddenly": 2983,
      "summer": 2984,
      "loud": 2985,
      "irty": 2986,
      "anybody": 2987,
      "hungry": 2988,
      "Sat": 2989,
      "garden": 2990,
      "album": 2991,
      "uses": 2992,
      "watching": 2993,
      "dan": 2994,
      "tit": 2995,
      "hospital": 2996,
      "horses": 2997,
      "ffer": 2998,
      "THAT": 2999,
      "effect": 3000,
      "bling": 3001,
      "carried": 3002,
      "ancy": 3003,
      "hoh": 3004,
      "kets": 3005,
      "track": 3006,
      "ilar": 3007,
      "UNK": 3008,
      "Mother": 3009,
      "spoke": 3010,
      "trees": 3011,
      "truth": 3012,
      "Califor": 3013,
      "imag": 3014,
      "capital": 3015,
      "Stop": 3016,
      "defin": 3017,
      "dra": 3018,
      "clever": 3019,
      "teach": 3020,
      "Jes": 3021,
      "SE": 3022,
      "busy": 3023,
      "kn": 3024,
      "hasn": 3025,
      "pup": 3026,
      "arrow": 3027,
      "ribut": 3028,
      "shit": 3029,
      "spot": 3030,
      "further": 3031,
      "continued": 3032,
      "incre": 3033,
      "America": 3034,
      "walking": 3035,
      "Mus": 3036,
      "....": 3037,
      "anymore": 3038,
      "nights": 3039,
      "parents": 3040,
      "rush": 3041,
      "ura": 3042,
      "Amy": 3043,
      "Bill": 3044,
      "south": 3045,
      "repe": 3046,
      "ears": 3047,
      "California": 3048,
      "tian": 3049,
      "Cor": 3050,
      "Mark": 3051,
      "dance": 3052,
      "ato": 3053,
      "loc": 3054,
      "accept": 3055,
      "breath": 3056,
      "However": 3057,
      "park": 3058,
      "invol": 3059,
      "ensus": 3060,
      "block": 3061,
      "blocks": 3062,
      "iff": 3063,
      "thanks": 3064,
      "added": 3065,
      "cording": 3066,
      "Sm": 3067,
      "Scot": 3068,
      "ico": 3069,
      "climb": 3070,
      "Mary": 3071,
      "kin": 3072,
      "liked": 3073,
      "tail": 3074,
      "uhoh": 3075,
      "Ital": 3076,
      "ously": 3077,
      "deser": 3078,
      "Austr": 3079,
      "det": 3080,
      "names": 3081,
      "visit": 3082,
      "gall": 3083,
      "jud": 3084,
      "ki": 3085,
      "host": 3086,
      "gro": 3087,
      "magnet": 3088,
      "Father": 3089,
      "accident": 3090,
      "distance": 3091,
      ",'": 3092,
      "El": 3093,
      "yep": 3094,
      "wet": 3095,
      "murder": 3096,
      "pho": 3097,
      "feat": 3098,
      "shop": 3099,
      "video": 3100,
      "Ire": 3101,
      "ging": 3102,
      "mate": 3103,
      "babies": 3104,
      "Su": 3105,
      "church": 3106,
      "imit": 3107,
      "space": 3108,
      "ount": 3109,
      "ashing": 3110,
      "bun": 3111,
      "cheese": 3112,
      "scream": 3113,
      "corner": 3114,
      "wand": 3115,
      "thin": 3116,
      "date": 3117,
      "exclaimed": 3118,
      "attention": 3119,
      "stud": 3120,
      "itself": 3121,
      "hood": 3122,
      "feed": 3123,
      "player": 3124,
      "����": 3125,
      "fucking": 3126,
      "SO": 3127,
      "sigh": 3128,
      "iced": 3129,
      "chan": 3130,
      "Lou": 3131,
      "ida": 3132,
      "tains": 3133,
      "House": 3134,
      "ral": 3135,
      "store": 3136,
      "charge": 3137,
      "smell": 3138,
      "pper": 3139,
      "rate": 3140,
      "beginning": 3141,
      "sky": 3142,
      "dropped": 3143,
      "tempt": 3144,
      "Austral": 3145,
      "pink": 3146,
      "hall": 3147,
      "card": 3148,
      "pause": 3149,
      "aves": 3150,
      "shouldn": 3151,
      "Sure": 3152,
      "reed": 3153,
      "puzz": 3154,
      "bits": 3155,
      "22": 3156,
      "ka": 3157,
      "none": 3158,
      "control": 3159,
      "Mer": 3160,
      "coat": 3161,
      "delight": 3162,
      "\")": 3163,
      "bin": 3164,
      "ization": 3165,
      "Part": 3166,
      "flat": 3167,
      "jour": 3168,
      "rich": 3169,
      "Bu": 3170,
      "male": 3171,
      "gives": 3172,
      "Cup": 3173,
      "Ru": 3174,
      "ston": 3175,
      "stor": 3176,
      "drop": 3177,
      "fed": 3178,
      "chicken": 3179,
      "aste": 3180,
      "leng": 3181,
      "earth": 3182,
      "----------------": 3183,
      "difficult": 3184,
      "Give": 3185,
      "Nat": 3186,
      "pic": 3187,
      "showed": 3188,
      "AC": 3189,
      "aith": 3190,
      "hide": 3191,
      "lit": 3192,
      "seeing": 3193,
      "Would": 3194,
      "lap": 3195,
      "paid": 3196,
      "Pri": 3197,
      "River": 3198,
      "fut": 3199,
      "pi": 3200,
      "tric": 3201,
      "starts": 3202,
      "bottle": 3203,
      "espe": 3204,
      "plays": 3205,
      "questions": 3206,
      "craft": 3207,
      "knock": 3208,
      "(\"": 3209,
      "stat": 3210,
      "situation": 3211,
      "Charlie": 3212,
      "FOR": 3213,
      "Sy": 3214,
      "moves": 3215,
      "dev": 3216,
      "100": 3217,
      "experi": 3218,
      "sia": 3219,
      "preci": 3220,
      "role": 3221,
      "term": 3222,
      "announ": 3223,
      "slowly": 3224,
      "gin": 3225,
      "ising": 3226,
      "lock": 3227,
      "shows": 3228,
      "Mac": 3229,
      "San": 3230,
      "educ": 3231,
      "court": 3232,
      "ours": 3233,
      "Nothing": 3234,
      "bound": 3235,
      "flowers": 3236,
      "cuse": 3237,
      "viously": 3238,
      "Que": 3239,
      "vies": 3240,
      "irst": 3241,
      "suffer": 3242,
      "handle": 3243,
      "ified": 3244,
      "weren": 3245,
      "basket": 3246,
      "anx": 3247,
      "load": 3248,
      "Pl": 3249,
      "2010": 3250,
      "priv": 3251,
      "regard": 3252,
      "Tex": 3253,
      "level": 3254,
      "lands": 3255,
      "teddy": 3256,
      "motion": 3257,
      "Richard": 3258,
      "east": 3259,
      "amb": 3260,
      "hate": 3261,
      "welve": 3262,
      "cts": 3263,
      "interesting": 3264,
      "drawing": 3265,
      "activ": 3266,
      "lymp": 3267,
      "button": 3268,
      "closed": 3269,
      "compet": 3270,
      "teeth": 3271,
      "lines": 3272,
      "rab": 3273,
      "sey": 3274,
      "Intern": 3275,
      "People": 3276,
      "Lord": 3277,
      "gri": 3278,
      "sle": 3279,
      "Listen": 3280,
      "dem": 3281,
      "lift": 3282,
      "problems": 3283,
      "fresh": 3284,
      "Sup": 3285,
      "square": 3286,
      "onto": 3287,
      "comfor": 3288,
      "astic": 3289,
      "circle": 3290,
      "fingers": 3291,
      "directed": 3292,
      "dig": 3293,
      "tel": 3294,
      ".--": 3295,
      "Our": 3296,
      "similar": 3297,
      "especially": 3298,
      "Air": 3299,
      "hill": 3300,
      "ky": 3301,
      "cars": 3302,
      "loves": 3303,
      "iles": 3304,
      "separ": 3305,
      "rian": 3306,
      "subject": 3307,
      "loy": 3308,
      "command": 3309,
      "dollars": 3310,
      "deli": 3311,
      "Its": 3312,
      "solutely": 3313,
      "future": 3314,
      "sharp": 3315,
      "rac": 3316,
      "ener": 3317,
      "length": 3318,
      "VER": 3319,
      "pir": 3320,
      "spend": 3321,
      "affe": 3322,
      "Dada": 3323,
      "Li": 3324,
      "Was": 3325,
      "entire": 3326,
      "share": 3327,
      "information": 3328,
      "ni": 3329,
      "...?": 3330,
      "raised": 3331,
      "crit": 3332,
      "joined": 3333,
      "tall": 3334,
      "abs": 3335,
      "goin": 3336,
      "usual": 3337,
      "crack": 3338,
      "mass": 3339,
      "nobody": 3340,
      "older": 3341,
      "Mat": 3342,
      "antly": 3343,
      "Helen": 3344,
      "grad": 3345,
      "Mex": 3346,
      "Sar": 3347,
      "chuck": 3348,
      "State": 3349,
      "study": 3350,
      "Mart": 3351,
      "School": 3352,
      "mi": 3353,
      "ras": 3354,
      "towel": 3355,
      "movies": 3356,
      "eggs": 3357,
      "DE": 3358,
      "due": 3359,
      "stone": 3360,
      "riage": 3361,
      "2011": 3362,
      "bon": 3363,
      "tech": 3364,
      "needed": 3365,
      "walked": 3366,
      "yn": 3367,
      "serious": 3368,
      "direction": 3369,
      "wonderful": 3370,
      "species": 3371,
      "Jesus": 3372,
      "Olymp": 3373,
      "ado": 3374,
      "pill": 3375,
      "popular": 3376,
      "cred": 3377,
      "account": 3378,
      "background": 3379,
      "aff": 3380,
      "century": 3381,
      "trad": 3382,
      "Um": 3383,
      "gress": 3384,
      "medi": 3385,
      "smile": 3386,
      "JO": 3387,
      "zing": 3388,
      "erson": 3389,
      "steps": 3390,
      "created": 3391,
      "bs": 3392,
      "India": 3393,
      "First": 3394,
      "hero": 3395,
      "LI": 3396,
      "memor": 3397,
      "pictures": 3398,
      "nic": 3399,
      "ville": 3400,
      "ric": 3401,
      "twelve": 3402,
      "Anne": 3403,
      "eleph": 3404,
      "picked": 3405,
      "issue": 3406,
      "stream": 3407,
      "grass": 3408,
      "2012": 3409,
      "spell": 3410,
      "isy": 3411,
      "comput": 3412,
      "interrup": 3413,
      "ggie": 3414,
      "Harry": 3415,
      "Peggy": 3416,
      "MU": 3417,
      "wich": 3418,
      "edge": 3419,
      "aret": 3420,
      "Little": 3421,
      "Rob": 3422,
      "itive": 3423,
      "occas": 3424,
      "Hen": 3425,
      "Tur": 3426,
      "pit": 3427,
      "tour": 3428,
      "wound": 3429,
      "purple": 3430,
      "graphy": 3431,
      "Afr": 3432,
      "Does": 3433,
      "struct": 3434,
      "develop": 3435,
      "destroy": 3436,
      "dut": 3437,
      "coach": 3438,
      "BO": 3439,
      "coll": 3440,
      "conne": 3441,
      "direct": 3442,
      "graph": 3443,
      ".’": 3444,
      "parts": 3445,
      "Fran": 3446,
      "Gre": 3447,
      "army": 3448,
      "stage": 3449,
      "Japanese": 3450,
      "SC": 3451,
      "uce": 3452,
      "bigger": 3453,
      "speaking": 3454,
      "excuse": 3455,
      "ordin": 3456,
      "2016": 3457,
      "viol": 3458,
      "dep": 3459,
      "een": 3460,
      "naught": 3461,
      "expected": 3462,
      "race": 3463,
      "western": 3464,
      "anna": 3465,
      "lion": 3466,
      "discus": 3467,
      "turning": 3468,
      "fol": 3469,
      "Eli": 3470,
      "GO": 3471,
      "Texas": 3472,
      "Di": 3473,
      "Red": 3474,
      "census": 3475,
      "terrible": 3476,
      "Jer": 3477,
      "likely": 3478,
      "cape": 3479,
      "Which": 3480,
      "dirty": 3481,
      "pocket": 3482,
      "convers": 3483,
      "ron": 3484,
      "ably": 3485,
      "trick": 3486,
      "isted": 3487,
      "ashed": 3488,
      "talked": 3489,
      "skin": 3490,
      "Ken": 3491,
      "asking": 3492,
      "lier": 3493,
      "zen": 3494,
      "birds": 3495,
      "promise": 3496,
      "surprise": 3497,
      "lig": 3498,
      "aper": 3499,
      "extra": 3500,
      "spring": 3501,
      "bill": 3502,
      "itary": 3503,
      "stars": 3504,
      "Gerva": 3505,
      "HER": 3506,
      "drew": 3507,
      "spent": 3508,
      "ffic": 3509,
      "path": 3510,
      "History": 3511,
      "League": 3512,
      "pounds": 3513,
      "lia": 3514,
      "itely": 3515,
      "speed": 3516,
      "spoon": 3517,
      "Perhaps": 3518,
      "ament": 3519,
      "IR": 3520,
      "settle": 3521,
      "CE": 3522,
      "TV": 3523,
      "Very": 3524,
      "lights": 3525,
      "missed": 3526,
      "rs": 3527,
      "active": 3528,
      "bel": 3529,
      "saur": 3530,
      "guard": 3531,
      "include": 3532,
      "Gervaise": 3533,
      "Lady": 3534,
      "Vic": 3535,
      "manner": 3536,
      "worse": 3537,
      "below": 3538,
      "ria": 3539,
      "Never": 3540,
      "itions": 3541,
      "caused": 3542,
      "difference": 3543,
      "natural": 3544,
      "Ted": 3545,
      "lli": 3546,
      "aud": 3547,
      "temp": 3548,
      "Gover": 3549,
      "Many": 3550,
      "Park": 3551,
      "ency": 3552,
      "council": 3553,
      "Vi": 3554,
      "alive": 3555,
      "prep": 3556,
      "Republ": 3557,
      "Illustr": 3558,
      "apo": 3559,
      "vious": 3560,
      "ender": 3561,
      "finally": 3562,
      "Rosam": 3563,
      "Jones": 3564,
      "Pre": 3565,
      "urday": 3566,
      "choo": 3567,
      "Ange": 3568,
      "pleasure": 3569,
      "tar": 3570,
      "lif": 3571,
      "intro": 3572,
      "Marie": 3573,
      "Bur": 3574,
      "FRI": 3575,
      "Gra": 3576,
      "KE": 3577,
      "ja": 3578,
      "AY": 3579,
      "manage": 3580,
      "join": 3581,
      "hiding": 3582,
      "beyond": 3583,
      "Rosamund": 3584,
      "GE": 3585,
      "election": 3586,
      "Only": 3587,
      "Tony": 3588,
      "amount": 3589,
      "DO": 3590,
      "health": 3591,
      "meat": 3592,
      "apple": 3593,
      "illa": 3594,
      "clown": 3595,
      "regular": 3596,
      "hurry": 3597,
      "Gar": 3598,
      "asleep": 3599,
      "ager": 3600,
      "fool": 3601,
      "bran": 3602,
      "High": 3603,
      "stren": 3604,
      "quired": 3605,
      "respect": 3606,
      "thinks": 3607,
      "decis": 3608,
      "rang": 3609,
      "AMY": 3610,
      "KN": 3611,
      "scr": 3612,
      "upstairs": 3613,
      "Sunday": 3614,
      "Their": 3615,
      "shirt": 3616,
      "mix": 3617,
      "helped": 3618,
      "burg": 3619,
      "eteen": 3620,
      "bis": 3621,
      "wed": 3622,
      "ague": 3623,
      "ansas": 3624,
      "bing": 3625,
      "brief": 3626,
      "East": 3627,
      "cul": 3628,
      "policy": 3629,
      "Most": 3630,
      "Dar": 3631,
      "vey": 3632,
      "plic": 3633,
      "famous": 3634,
      "threat": 3635,
      "sequ": 3636,
      "satis": 3637,
      "CAR": 3638,
      "During": 3639,
      "vic": 3640,
      "reck": 3641,
      "total": 3642,
      "immedi": 3643,
      "grew": 3644,
      "original": 3645,
      "upid": 3646,
      "2008": 3647,
      "occur": 3648,
      "writer": 3649,
      "naughty": 3650,
      "Ca": 3651,
      "gles": 3652,
      "Christian": 3653,
      "pool": 3654,
      "whoops": 3655,
      "Before": 3656,
      "Excuse": 3657,
      "introdu": 3658,
      "LO": 3659,
      "thus": 3660,
      "broad": 3661,
      "2017": 3662,
      "pencil": 3663,
      "community": 3664,
      "boun": 3665,
      "calling": 3666,
      "nest": 3667,
      "process": 3668,
      "responsi": 3669,
      "eak": 3670,
      "famili": 3671,
      "lab": 3672,
      "arrest": 3673,
      "tered": 3674,
      "General": 3675,
      "photo": 3676,
      "nineteen": 3677,
      "streng": 3678,
      "Sch": 3679,
      "gle": 3680,
      "zed": 3681,
      "sett": 3682,
      "houses": 3683,
      "Irene": 3684,
      "fright": 3685,
      "rat": 3686,
      "sis": 3687,
      "ird": 3688,
      "ums": 3689,
      "firm": 3690,
      "elec": 3691,
      "numbers": 3692,
      "driving": 3693,
      "Could": 3694,
      "rot": 3695,
      "size": 3696,
      "Loire": 3697,
      "Big": 3698,
      "Play": 3699,
      "tha": 3700,
      "lim": 3701,
      "pow": 3702,
      "hop": 3703,
      "clap": 3704,
      "ech": 3705,
      "Germany": 3706,
      "Bra": 3707,
      "vict": 3708,
      "Roman": 3709,
      "scared": 3710,
      "Got": 3711,
      "Other": 3712,
      "jum": 3713,
      "tax": 3714,
      "film": 3715,
      "gather": 3716,
      "forth": 3717,
      "sheep": 3718,
      "Donald": 3719,
      "missing": 3720,
      "Since": 3721,
      "oops": 3722,
      "tower": 3723,
      "ingly": 3724,
      "sta": 3725,
      "rose": 3726,
      "province": 3727,
      "ensive": 3728,
      "swing": 3729,
      "habit": 3730,
      "peace": 3731,
      "ption": 3732,
      "sandwich": 3733,
      "Act": 3734,
      "largest": 3735,
      "aven": 3736,
      "needta": 3737,
      "Indians": 3738,
      "iers": 3739,
      "notice": 3740,
      "plate": 3741,
      "ension": 3742,
      "Marg": 3743,
      "lden": 3744,
      "ashion": 3745,
      "vided": 3746,
      "Saturday": 3747,
      "wit": 3748,
      "weap": 3749,
      "tight": 3750,
      "welcome": 3751,
      "fortun": 3752,
      "battle": 3753,
      "rect": 3754,
      "IF": 3755,
      "jam": 3756,
      "nie": 3757,
      "berry": 3758,
      "consid": 3759,
      "sleeping": 3760,
      "CHILDES_NA": 3761,
      "oon": 3762,
      "uncle": 3763,
      "airport": 3764,
      "About": 3765,
      "Chair": 3766,
      "Bet": 3767,
      "wing": 3768,
      "bother": 3769,
      "tained": 3770,
      "Doctor": 3771,
      "leader": 3772,
      "comfortable": 3773,
      "40": 3774,
      "threw": 3775,
      "relat": 3776,
      "laid": 3777,
      "dressed": 3778,
      "various": 3779,
      "whispered": 3780,
      "mamma": 3781,
      "comed": 3782,
      "Robert": 3783,
      "radio": 3784,
      "othy": 3785,
      "tou": 3786,
      "mostly": 3787,
      "lake": 3788,
      "2007": 3789,
      "fallen": 3790,
      "simply": 3791,
      "necessary": 3792,
      "abl": 3793,
      "HH": 3794,
      "stupid": 3795,
      "cience": 3796,
      "explo": 3797,
      "Lara": 3798,
      "tone": 3799,
      "thou": 3800,
      "anywhere": 3801,
      "pleased": 3802,
      "ademy": 3803,
      "relation": 3804,
      "arrived": 3805,
      "Mhm": 3806,
      "bite": 3807,
      "gig": 3808,
      "ying": 3809,
      "angry": 3810,
      "inosaur": 3811,
      "temper": 3812,
      "Henry": 3813,
      "Du": 3814,
      "forty": 3815,
      "ault": 3816,
      "officer": 3817,
      "Bye": 3818,
      "ala": 3819,
      "ables": 3820,
      "terms": 3821,
      "antic": 3822,
      "pray": 3823,
      "2013": 3824,
      "final": 3825,
      "Albert": 3826,
      "2006": 3827,
      "Party": 3828,
      "alo": 3829,
      "stories": 3830,
      "director": 3831,
      "CK": 3832,
      "Black": 3833,
      "GHT": 3834,
      "Alf": 3835,
      "gir": 3836,
      "iting": 3837,
      "moon": 3838,
      "goodness": 3839,
      "ray": 3840,
      "Street": 3841,
      "ference": 3842,
      "KAT": 3843,
      "UK": 3844,
      "unless": 3845,
      "project": 3846,
      "Three": 3847,
      "starting": 3848,
      "arent": 3849,
      "fifteen": 3850,
      "filled": 3851,
      "MAN": 3852,
      "shape": 3853,
      "Ce": 3854,
      "entered": 3855,
      "186": 3856,
      "throat": 3857,
      "dish": 3858,
      "lled": 3859,
      "sail": 3860,
      "shire": 3861,
      "Fred": 3862,
      "More": 3863,
      "Cel": 3864,
      "din": 3865,
      "dinosaur": 3866,
      "fashion": 3867,
      "isod": 3868,
      "anti": 3869,
      "surprised": 3870,
      "elephant": 3871,
      "lem": 3872,
      "lip": 3873,
      "hardly": 3874,
      "happening": 3875,
      "ninety": 3876,
      "rious": 3877,
      "holid": 3878,
      "rail": 3879,
      "prove": 3880,
      "Champion": 3881,
      "machine": 3882,
      "fighting": 3883,
      "considered": 3884,
      "Hy": 3885,
      "bi": 3886,
      "mming": 3887,
      "driver": 3888,
      "Phi": 3889,
      "moder": 3890,
      "higher": 3891,
      "pleasant": 3892,
      "International": 3893,
      "Ram": 3894,
      "recent": 3895,
      "loss": 3896,
      "mocrat": 3897,
      "plant": 3898,
      "angle": 3899,
      "patient": 3900,
      "cabin": 3901,
      "Matt": 3902,
      "tray": 3903,
      "eleven": 3904,
      "captain": 3905,
      "Chin": 3906,
      "uhuh": 3907,
      "offer": 3908,
      "fied": 3909,
      "college": 3910,
      "Bradford": 3911,
      "dies": 3912,
      "lling": 3913,
      "imp": 3914,
      "ox": 3915,
      "winter": 3916,
      "asons": 3917,
      "itzer": 3918,
      "acting": 3919,
      "supper": 3920,
      "lucky": 3921,
      "cere": 3922,
      "minis": 3923,
      "pressed": 3924,
      "ENT": 3925,
      "Cent": 3926,
      "LY": 3927,
      "Council": 3928,
      "WI": 3929,
      "este": 3930,
      "balls": 3931,
      "ledge": 3932,
      "simple": 3933,
      "involved": 3934,
      "AB": 3935,
      "ature": 3936,
      "weak": 3937,
      "indi": 3938,
      "ower": 3939,
      "commit": 3940,
      "ladies": 3941,
      "continues": 3942,
      "Fort": 3943,
      "cky": 3944,
      "lips": 3945,
      "brain": 3946,
      "empty": 3947,
      "coughs": 3948,
      "ome": 3949,
      "weight": 3950,
      "ift": 3951,
      "text": 3952,
      "Ter": 3953,
      "earlier": 3954,
      "laughed": 3955,
      "gged": 3956,
      "falling": 3957,
      "vidence": 3958,
      "computer": 3959,
      "()": 3960,
      "icks": 3961,
      "Bab": 3962,
      "Law": 3963,
      "PE": 3964,
      "nal": 3965,
      "pair": 3966,
      "meal": 3967,
      "sym": 3968,
      "III": 3969,
      "Tim": 3970,
      "orders": 3971,
      "2014": 3972,
      "2009": 3973,
      "Louis": 3974,
      "Tod": 3975,
      "youth": 3976,
      "completely": 3977,
      "bunny": 3978,
      "conversation": 3979,
      "Port": 3980,
      "deter": 3981,
      "attempt": 3982,
      "ita": 3983,
      "lets": 3984,
      "shoe": 3985,
      "twice": 3986,
      "bless": 3987,
      "psy": 3988,
      "dogs": 3989,
      "Fre": 3990,
      "bid": 3991,
      "mummy": 3992,
      "spok": 3993,
      "1999": 3994,
      "scene": 3995,
      "ION": 3996,
      "anish": 3997,
      "sele": 3998,
      "roof": 3999,
      "social": 4000,
      "Martin": 4001,
      "cous": 4002,
      "knights": 4003,
      "lu": 4004,
      "keeping": 4005,
      "quarter": 4006,
      "dangerous": 4007,
      "opport": 4008,
      "ults": 4009,
      "meaning": 4010,
      "stands": 4011,
      "Switzer": 4012,
      "announced": 4013,
      "Switzerland": 4014,
      "Fin": 4015,
      "MY": 4016,
      "dere": 4017,
      "pun": 4018,
      "Sarah": 4019,
      "weather": 4020,
      "keys": 4021,
      "flying": 4022,
      "Old": 4023,
      "rend": 4024,
      "areas": 4025,
      "therefore": 4026,
      "audi": 4027,
      "excited": 4028,
      "micro": 4029,
      "Kitty": 4030,
      "iv": 4031,
      "Cos": 4032,
      "political": 4033,
      "softly": 4034,
      "mentioned": 4035,
      "puzzle": 4036,
      "pin": 4037,
      "anda": 4038,
      "ache": 4039,
      "grou": 4040,
      "actress": 4041,
      "fru": 4042,
      "Bobby": 4043,
      "HA": 4044,
      "jac": 4045,
      "escape": 4046,
      "fold": 4047,
      "possess": 4048,
      "medic": 4049,
      "Love": 4050,
      "Jenn": 4051,
      "econ": 4052,
      "zes": 4053,
      "vesti": 4054,
      "'?": 4055,
      "grown": 4056,
      "tu": 4057,
      "Child": 4058,
      "colors": 4059,
      "easily": 4060,
      "duty": 4061,
      "Gl": 4062,
      "ko": 4063,
      "tong": 4064,
      "usion": 4065,
      "nap": 4066,
      "constru": 4067,
      "Carl": 4068,
      "Keep": 4069,
      "UT": 4070,
      "ona": 4071,
      "Union": 4072,
      "walks": 4073,
      "normal": 4074,
      "Say": 4075,
      "oppos": 4076,
      "spread": 4077,
      "mistake": 4078,
      "declared": 4079,
      "Wo": 4080,
      "ano": 4081,
      "indic": 4082,
      "personal": 4083,
      "honest": 4084,
      "market": 4085,
      "Island": 4086,
      "District": 4087,
      "Ay": 4088,
      "Gold": 4089,
      "ckey": 4090,
      "Carol": 4091,
      "opportun": 4092,
      "eal": 4093,
      "ena": 4094,
      "establ": 4095,
      "learned": 4096,
      "90": 4097,
      "Award": 4098,
      "sugar": 4099,
      "published": 4100,
      "gan": 4101,
      "influ": 4102,
      "phys": 4103,
      "drug": 4104,
      "nature": 4105,
      "Dorothy": 4106,
      "CT": 4107,
      "sor": 4108,
      "atherine": 4109,
      "approach": 4110,
      "storm": 4111,
      "relig": 4112,
      "singer": 4113,
      "Rac": 4114,
      "ius": 4115,
      "ungle": 4116,
      "military": 4117,
      "enty": 4118,
      "result": 4119,
      "volution": 4120,
      "dows": 4121,
      "Georg": 4122,
      "flower": 4123,
      "fellows": 4124,
      "delic": 4125,
      "neighbor": 4126,
      "oking": 4127,
      "indust": 4128,
      "2015": 4129,
      "ONE": 4130,
      "tiny": 4131,
      "strength": 4132,
      "Sen": 4133,
      "Ty": 4134,
      "whoa": 4135,
      "aft": 4136,
      "desk": 4137,
      "pulled": 4138,
      "Illustration": 4139,
      "Creek": 4140,
      "Jen": 4141,
      "WAS": 4142,
      "ability": 4143,
      "capt": 4144,
      "practice": 4145,
      ".,": 4146,
      "faith": 4147,
      "noticed": 4148,
      "episod": 4149,
      "awful": 4150,
      "produced": 4151,
      "protect": 4152,
      "spirit": 4153,
      "dancing": 4154,
      "rabbit": 4155,
      "Res": 4156,
      "bre": 4157,
      "pend": 4158,
      "stret": 4159,
      "occup": 4160,
      "woods": 4161,
      "development": 4162,
      "Hu": 4163,
      "Med": 4164,
      "sion": 4165,
      "meas": 4166,
      "advent": 4167,
      "quire": 4168,
      "asing": 4169,
      "doggie": 4170,
      "Sum": 4171,
      "aver": 4172,
      "kitty": 4173,
      "eager": 4174,
      "heads": 4175,
      "founded": 4176,
      "Charles": 4177,
      "enemy": 4178,
      "castle": 4179,
      "blan": 4180,
      "Boy": 4181,
      "Hal": 4182,
      "RUS": 4183,
      "ught": 4184,
      "yard": 4185,
      "White": 4186,
      "surface": 4187,
      "swimming": 4188,
      "ids": 4189,
      "rights": 4190,
      "percent": 4191,
      "watched": 4192,
      "purpose": 4193,
      "beside": 4194,
      "Sant": 4195,
      "proud": 4196,
      "cheer": 4197,
      "Minister": 4198,
      "immediately": 4199,
      "tho": 4200,
      "asty": 4201,
      "mud": 4202,
      "appointed": 4203,
      "Sal": 4204,
      "Sim": 4205,
      "env": 4206,
      "tiger": 4207,
      "hadn": 4208,
      "While": 4209,
      "guns": 4210,
      "Ba": 4211,
      "Sing": 4212,
      "cret": 4213,
      "asy": 4214,
      "igr": 4215,
      "mater": 4216,
      "calm": 4217,
      "Saint": 4218,
      "nes": 4219,
      "itude": 4220,
      "eam": 4221,
      "runs": 4222,
      "MB": 4223,
      "courage": 4224,
      "soul": 4225,
      "Australia": 4226,
      "ecut": 4227,
      "mail": 4228,
      "Colle": 4229,
      "Cal": 4230,
      "vor": 4231,
      "ators": 4232,
      "ening": 4233,
      "shoulder": 4234,
      "chuckles": 4235,
      "Aye": 4236,
      "Hon": 4237,
      "Mor": 4238,
      "tomat": 4239,
      "stro": 4240,
      "shore": 4241,
      "bedroom": 4242,
      "version": 4243,
      "definitely": 4244,
      "occasion": 4245,
      "determin": 4246,
      "MP": 4247,
      "Pan": 4248,
      "ired": 4249,
      "motor": 4250,
      "bomb": 4251,
      "deb": 4252,
      "woof": 4253,
      "inct": 4254,
      "anny": 4255,
      "agreed": 4256,
      "Ellie": 4257,
      "peek": 4258,
      "exist": 4259,
      "struck": 4260,
      "faces": 4261,
      "professional": 4262,
      "crowd": 4263,
      "Queen": 4264,
      "Ham": 4265,
      "absolutely": 4266,
      "saved": 4267,
      "avail": 4268,
      "calls": 4269,
      "promised": 4270,
      "thr": 4271,
      "iday": 4272,
      "colm": 4273,
      "message": 4274,
      "Malcolm": 4275,
      "groups": 4276,
      "Cong": 4277,
      "Wow": 4278,
      "dare": 4279,
      "ini": 4280,
      "Mid": 4281,
      "yum": 4282,
      "spoken": 4283,
      "states": 4284,
      "sevent": 4285,
      "ching": 4286,
      "Inter": 4287,
      "assist": 4288,
      "colate": 4289,
      "Guy": 4290,
      "Chairman": 4291,
      "Hold": 4292,
      "bush": 4293,
      "cue": 4294,
      "cards": 4295,
      "taste": 4296,
      "ination": 4297,
      "doors": 4298,
      "Democrat": 4299,
      "figures": 4300,
      "smoke": 4301,
      "task": 4302,
      "straw": 4303,
      "Ooh": 4304,
      "SI": 4305,
      "ert": 4306,
      "lebr": 4307,
      "experience": 4308,
      "modern": 4309,
      "cities": 4310,
      "plenty": 4311,
      "tells": 4312,
      "wearing": 4313,
      "fixed": 4314,
      "energy": 4315,
      "Cour": 4316,
      "cult": 4317,
      "thick": 4318,
      "nomin": 4319,
      "cely": 4320,
      "ourselves": 4321,
      "iel": 4322,
      "NO": 4323,
      "UD": 4324,
      "speech": 4325,
      "ski": 4326,
      "Celeste": 4327,
      "sits": 4328,
      "forms": 4329,
      "carefully": 4330,
      "begin": 4331,
      "Flor": 4332,
      "Games": 4333,
      "nu": 4334,
      "downstairs": 4335,
      "listening": 4336,
      "bility": 4337,
      "dun": 4338,
      "pants": 4339,
      "screw": 4340,
      "youn": 4341,
      "Cam": 4342,
      "Mike": 4343,
      "hotel": 4344,
      "countries": 4345,
      "Once": 4346,
      "OUT": 4347,
      "gentleman": 4348,
      "bour": 4349,
      "pha": 4350,
      "icle": 4351,
      "ishment": 4352,
      "2005": 4353,
      "falls": 4354,
      "grave": 4355,
      "huge": 4356,
      "Mu": 4357,
      "Sid": 4358,
      "evidence": 4359,
      "tun": 4360,
      "Lucy": 4361,
      "Academy": 4362,
      "remarked": 4363,
      "individ": 4364,
      "Mel": 4365,
      "187": 4366,
      "songs": 4367,
      "Vir": 4368,
      "Wat": 4369,
      "],": 4370,
      "eld": 4371,
      "vere": 4372,
      "rec": 4373,
      "iti": 4374,
      "chat": 4375,
      "plans": 4376,
      "blind": 4377,
      "guest": 4378,
      "choice": 4379,
      "smart": 4380,
      "aware": 4381,
      "tongue": 4382,
      "bark": 4383,
      "emer": 4384,
      "whist": 4385,
      "avo": 4386,
      "HI": 4387,
      "RR": 4388,
      "Rem": 4389,
      "nother": 4390,
      "affair": 4391,
      "damn": 4392,
      "soldiers": 4393,
      "knife": 4394,
      "Bel": 4395,
      "Call": 4396,
      "coast": 4397,
      "hers": 4398,
      "rolled": 4399,
      "ns": 4400,
      "sides": 4401,
      "waste": 4402,
      "agu": 4403,
      "chocolate": 4404,
      "ordered": 4405,
      "31": 4406,
      "60": 4407,
      "Kat": 4408,
      "jungle": 4409,
      "toast": 4410,
      "canton": 4411,
      "hip": 4412,
      "paint": 4413,
      "clearly": 4414,
      "snake": 4415,
      "perfectly": 4416,
      "generally": 4417,
      "imagine": 4418,
      "fus": 4419,
      "phe": 4420,
      "exper": 4421,
      "Lem": 4422,
      "secon": 4423,
      "uten": 4424,
      "acqu": 4425,
      "trunk": 4426,
      "cious": 4427,
      "paign": 4428,
      "Gab": 4429,
      "willing": 4430,
      "vote": 4431,
      "rule": 4432,
      "education": 4433,
      "ordinary": 4434,
      "Win": 4435,
      "Wil": 4436,
      "sake": 4437,
      "ilda": 4438,
      "discovered": 4439,
      "forest": 4440,
      "vari": 4441,
      "aid": 4442,
      "craw": 4443,
      "fu": 4444,
      "fant": 4445,
      "trem": 4446,
      "remained": 4447,
      "private": 4448,
      "Best": 4449,
      "aries": 4450,
      "ads": 4451,
      "celebr": 4452,
      "price": 4453,
      "izes": 4454,
      "brothers": 4455,
      "brave": 4456,
      "Na": 4457,
      "ument": 4458,
      "European": 4459,
      "Over": 4460,
      "sch": 4461,
      "begins": 4462,
      "Atl": 4463,
      "circum": 4464,
      "officers": 4465,
      "Italian": 4466,
      "Bat": 4467,
      "Hur": 4468,
      "Nav": 4469,
      "neither": 4470,
      "tears": 4471,
      "reaches": 4472,
      "pulls": 4473,
      "Those": 4474,
      "**": 4475,
      "Had": 4476,
      "Mil": 4477,
      "tery": 4478,
      "myster": 4479,
      "proceed": 4480,
      "monster": 4481,
      "Des": 4482,
      "Hill": 4483,
      "NE": 4484,
      "dread": 4485,
      "ola": 4486,
      "trip": 4487,
      "believed": 4488,
      "LLL": 4489,
      "related": 4490,
      "correct": 4491,
      "Alden": 4492,
      "XX": 4493,
      "gab": 4494,
      "utch": 4495,
      "copy": 4496,
      "views": 4497,
      "Scott": 4498,
      "oil": 4499,
      "investi": 4500,
      "vac": 4501,
      "relie": 4502,
      "raise": 4503,
      "strain": 4504,
      "custo": 4505,
      "refers": 4506,
      "ironment": 4507,
      "opposite": 4508,
      "younger": 4509,
      "seconds": 4510,
      "jig": 4511,
      "ota": 4512,
      "taught": 4513,
      "shake": 4514,
      "towns": 4515,
      "appearance": 4516,
      "Dick": 4517,
      "Sou": 4518,
      "range": 4519,
      "tv": 4520,
      "comb": 4521,
      "apparent": 4522,
      "Warren": 4523,
      "Sand": 4524,
      "buck": 4525,
      "hah": 4526,
      "hol": 4527,
      "kinda": 4528,
      "potato": 4529,
      "Smith": 4530,
      "!'": 4531,
      "Rand": 4532,
      "aboo": 4533,
      "Spanish": 4534,
      "honor": 4535,
      "Colonel": 4536,
      "nurse": 4537,
      "demand": 4538,
      "ministr": 4539,
      "BC": 4540,
      "LES": 4541,
      "Put": 4542,
      "nation": 4543,
      "forced": 4544,
      "opening": 4545,
      "kisses": 4546,
      "Jess": 4547,
      "rings": 4548,
      "ero": 4549,
      "lls": 4550,
      "knowledge": 4551,
      "omen": 4552,
      "Pal": 4553,
      "ji": 4554,
      "thew": 4555,
      "beach": 4556,
      "comment": 4557,
      "qual": 4558,
      "worried": 4559,
      "shown": 4560,
      "cellent": 4561,
      "style": 4562,
      "sighs": 4563,
      "JJ": 4564,
      "trail": 4565,
      "2000": 4566,
      "Church": 4567,
      "choose": 4568,
      "chap": 4569,
      "Jean": 4570,
      "lawyer": 4571,
      "prepared": 4572,
      "decision": 4573,
      "Lar": 4574,
      "rit": 4575,
      "sens": 4576,
      "scre": 4577,
      "ats": 4578,
      "aye": 4579,
      "according": 4580,
      "Stone": 4581,
      "properly": 4582,
      "Tig": 4583,
      "fal": 4584,
      "wrest": 4585,
      "isa": 4586,
      "concl": 4587,
      "condu": 4588,
      "ucker": 4589,
      "tors": 4590,
      "helping": 4591,
      "northwest": 4592,
      "Day": 4593,
      "Mur": 4594,
      "bike": 4595,
      "afterwards": 4596,
      "THIS": 4597,
      "marry": 4598,
      "Harris": 4599,
      "cases": 4600,
      "opportunity": 4601,
      "Cur": 4602,
      "Da": 4603,
      "Mas": 4604,
      "double": 4605,
      "gal": 4606,
      "oe": 4607,
      "employ": 4608,
      "addressed": 4609,
      "anxious": 4610,
      "Ry": 4611,
      "gs": 4612,
      "jest": 4613,
      "quality": 4614,
      "olar": 4615,
      "Friday": 4616,
      "WHAT": 4617,
      "journey": 4618,
      "Minn": 4619,
      "iment": 4620,
      "ucky": 4621,
      "Sometimes": 4622,
      "telephone": 4623,
      "fault": 4624,
      "research": 4625,
      "tire": 4626,
      "istic": 4627,
      "addition": 4628,
      "unders": 4629,
      "shouts": 4630,
      "lliant": 4631,
      "Catherine": 4632,
      "Van": 4633,
      "lower": 4634,
      "condition": 4635,
      "effort": 4636,
      "grandma": 4637,
      "Prof": 4638,
      "blows": 4639,
      "growing": 4640,
      "evident": 4641,
      "Fuck": 4642,
      "rout": 4643,
      "forman": 4644,
      "obviously": 4645,
      "bringing": 4646,
      "byebye": 4647,
      "magaz": 4648,
      "repeated": 4649,
      "shower": 4650,
      "centre": 4651,
      "surround": 4652,
      "fairly": 4653,
      "bathroom": 4654,
      "Aust": 4655,
      "Again": 4656,
      "Pil": 4657,
      "Und": 4658,
      "idence": 4659,
      "Isn": 4660,
      "Lee": 4661,
      "eighty": 4662,
      "Mam": 4663,
      "tow": 4664,
      "tractor": 4665,
      "ggle": 4666,
      "Secret": 4667,
      "distribut": 4668,
      "Rol": 4669,
      "ora": 4670,
      "ares": 4671,
      "contract": 4672,
      "leading": 4673,
      "included": 4674,
      "successful": 4675,
      "sports": 4676,
      "Pap": 4677,
      "forces": 4678,
      "comfort": 4679,
      "serve": 4680,
      "official": 4681,
      "mountain": 4682,
      "located": 4683,
      "structure": 4684,
      "IV": 4685,
      "Out": 4686,
      "toes": 4687,
      "Stan": 4688,
      "papers": 4689,
      "favour": 4690,
      "hunting": 4691,
      "Life": 4692,
      "oth": 4693,
      "belt": 4694,
      "slide": 4695,
      "particularly": 4696,
      "liter": 4697,
      "settled": 4698,
      "fruit": 4699,
      "Virgin": 4700,
      "hoo": 4701,
      "const": 4702,
      "swim": 4703,
      "Russian": 4704,
      "concerned": 4705,
      "Mill": 4706,
      "pical": 4707,
      "sour": 4708,
      "soup": 4709,
      "2004": 4710,
      "Canada": 4711,
      "services": 4712,
      "walls": 4713,
      "TA": 4714,
      "ease": 4715,
      "enne": 4716,
      "aled": 4717,
      "Gerald": 4718,
      "independ": 4719,
      "objects": 4720,
      "detail": 4721,
      "Jennie": 4722,
      "Isa": 4723,
      "mitted": 4724,
      "China": 4725,
      "contact": 4726,
      "gently": 4727,
      "medicine": 4728,
      "Lau": 4729,
      "Sus": 4730,
      "knowing": 4731,
      "somewhat": 4732,
      "slaves": 4733,
      "painting": 4734,
      "tid": 4735,
      "chard": 4736,
      "impossible": 4737,
      "newsp": 4738,
      "stayed": 4739,
      "continue": 4740,
      "Pays": 4741,
      "ram": 4742,
      "aside": 4743,
      "docum": 4744,
      "dozen": 4745,
      "uni": 4746,
      "istan": 4747,
      "crayons": 4748,
      "microphone": 4749,
      "Wol": 4750,
      "wagon": 4751,
      "homes": 4752,
      "crash": 4753,
      "latter": 4754,
      "center": 4755,
      "Although": 4756,
      "Reg": 4757,
      "chester": 4758,
      "drinking": 4759,
      "possibly": 4760,
      "oured": 4761,
      "cel": 4762,
      "managed": 4763,
      "INV1": 4764,
      "phy": 4765,
      "prefer": 4766,
      "schools": 4767,
      "risk": 4768,
      "eighteen": 4769,
      "Paris": 4770,
      "knees": 4771,
      "victim": 4772,
      "Huh": 4773,
      "scient": 4774,
      "female": 4775,
      "deliver": 4776,
      ",’": 4777,
      "cise": 4778,
      "sem": 4779,
      "els": 4780,
      "easier": 4781,
      "developed": 4782,
      "Chinese": 4783,
      "Pak": 4784,
      "neat": 4785,
      "elected": 4786,
      "campaign": 4787,
      "cute": 4788,
      "lotte": 4789,
      "statement": 4790,
      "burst": 4791,
      "succeed": 4792,
      "Grandma": 4793,
      "Another": 4794,
      "Sea": 4795,
      "harm": 4796,
      "sung": 4797,
      "wick": 4798,
      "ify": 4799,
      "Hel": 4800,
      "bub": 4801,
      "waited": 4802,
      "cheek": 4803,
      "finding": 4804,
      "title": 4805,
      "Matthew": 4806,
      "Tri": 4807,
      "vot": 4808,
      "eds": 4809,
      "staff": 4810,
      "tron": 4811,
      "aps": 4812,
      "apped": 4813,
      "smaller": 4814,
      "dolls": 4815,
      "Charlotte": 4816,
      "Florida": 4817,
      "Awards": 4818,
      "kay": 4819,
      "mul": 4820,
      "model": 4821,
      "boss": 4822,
      "partner": 4823,
      "balloon": 4824,
      "2003": 4825,
      "pony": 4826,
      "Still": 4827,
      "trade": 4828,
      "aircraft": 4829,
      "izing": 4830,
      "Los": 4831,
      "changes": 4832,
      "princi": 4833,
      "Royal": 4834,
      "Gi": 4835,
      "fancy": 4836,
      "phi": 4837,
      "cancer": 4838,
      "--\"": 4839,
      "champion": 4840,
      "whispers": 4841,
      "tickle": 4842,
      "Au": 4843,
      "Night": 4844,
      "opin": 4845,
      "closer": 4846,
      "Becky": 4847,
      "Molly": 4848,
      "movement": 4849,
      "magic": 4850,
      "cousin": 4851,
      "Hay": 4852,
      "ume": 4853,
      "ancient": 4854,
      "retired": 4855,
      "rob": 4856,
      "worst": 4857,
      "performan": 4858,
      "Something": 4859,
      "brilliant": 4860,
      "rapid": 4861,
      "Hum": 4862,
      "Ta": 4863,
      "Chica": 4864,
      "benef": 4865,
      "Asian": 4866,
      "mally": 4867,
      "stock": 4868,
      "previous": 4869,
      "feels": 4870,
      "squee": 4871,
      "windows": 4872,
      "hanging": 4873,
      "Laura": 4874,
      "Green": 4875,
      "Clar": 4876,
      "cis": 4877,
      "gang": 4878,
      "plants": 4879,
      "extre": 4880,
      "grab": 4881,
      "spect": 4882,
      "colonel": 4883,
      "knee": 4884,
      "rules": 4885,
      "$=": 4886,
      "fan": 4887,
      "orter": 4888,
      "hee": 4889,
      "proved": 4890,
      "cles": 4891,
      "chem": 4892,
      "fishing": 4893,
      "Barry": 4894,
      "bloody": 4895,
      "difficul": 4896,
      "Ir": 4897,
      "Lat": 4898,
      "kins": 4899,
      "pour": 4900,
      "rocks": 4901,
      "liament": 4902,
      "staying": 4903,
      "Mexico": 4904,
      "Cas": 4905,
      "Nice": 4906,
      "Tucker": 4907,
      "ost": 4908,
      "zo": 4909,
      "poet": 4910,
      "manager": 4911,
      "prevent": 4912,
      "crime": 4913,
      "signed": 4914,
      "circumst": 4915,
      "Master": 4916,
      "Washing": 4917,
      "Ye": 4918,
      "bout": 4919,
      "doin": 4920,
      "allas": 4921,
      "ented": 4922,
      "odd": 4923,
      "tran": 4924,
      "players": 4925,
      "flag": 4926,
      "throwing": 4927,
      "carrying": 4928,
      "events": 4929,
      "slightly": 4930,
      "SH": 4931,
      "lord": 4932,
      "alley": 4933,
      "tip": 4934,
      "appreci": 4935,
      "complain": 4936,
      "steal": 4937,
      "Max": 4938,
      "refle": 4939,
      "SSS": 4940,
      "Fro": 4941,
      "Fenn": 4942,
      "Lab": 4943,
      "Val": 4944,
      "“‘": 4945,
      "atives": 4946,
      "section": 4947,
      "execut": 4948,
      "papa": 4949,
      "Canad": 4950,
      "Monday": 4951,
      "arrange": 4952,
      "Mi": 4953,
      "scrat": 4954,
      "deck": 4955,
      "excite": 4956,
      "giggles": 4957,
      "Summer": 4958,
      "Chicago": 4959,
      "Washington": 4960,
      "Light": 4961,
      "Mag": 4962,
      "err": 4963,
      "remind": 4964,
      "resol": 4965,
      "keeps": 4966,
      "pression": 4967,
      "logical": 4968,
      "Blue": 4969,
      "CHILDES_UK": 4970,
      "available": 4971,
      "Cla": 4972,
      "Lin": 4973,
      "metal": 4974,
      "protest": 4975,
      "sixty": 4976,
      "Polly": 4977,
      "holiday": 4978,
      "WO": 4979,
      "ites": 4980,
      "aces": 4981,
      "otherwise": 4982,
      "airplane": 4983,
      "teams": 4984,
      "sposta": 4985,
      "blanket": 4986,
      "35": 4987,
      "SA": 4988,
      "award": 4989,
      "homa": 4990,
      "progress": 4991,
      "Everything": 4992,
      "budget": 4993,
      "Today": 4994,
      "Rachel": 4995,
      "environment": 4996,
      "Dallas": 4997,
      "UP": 4998,
      "aded": 4999,
      "cop": 5000,
      "gency": 5001,
      "forgotten": 5002,
      "scarcely": 5003,
      "extreme": 5004,
      "mie": 5005,
      "heat": 5006,
      "doo": 5007,
      "berg": 5008,
      "Poss": 5009,
      "training": 5010,
      "College": 5011,
      "80": 5012,
      "CA": 5013,
      "arily": 5014,
      "icans": 5015,
      "iding": 5016,
      "vert": 5017,
      "mob": 5018,
      "cakes": 5019,
      "iction": 5020,
      "showing": 5021,
      "sticks": 5022,
      "pointing": 5023,
      "ification": 5024,
      "quietly": 5025,
      "troops": 5026,
      "turtle": 5027,
      "Cat": 5028,
      "aunt": 5029,
      "scri": 5030,
      "sees": 5031,
      "exer": 5032,
      "Chief": 5033,
      "silent": 5034,
      "Home": 5035,
      "Bern": 5036,
      "knocked": 5037,
      "Crom": 5038,
      "Cass": 5039,
      "Four": 5040,
      "Last": 5041,
      "iny": 5042,
      "tood": 5043,
      "associ": 5044,
      "cean": 5045,
      "Wel": 5046,
      "excellent": 5047,
      "rolling": 5048,
      "advant": 5049,
      "Early": 5050,
      "Profess": 5051,
      "fought": 5052,
      "jing": 5053,
      "sac": 5054,
      "etc": 5055,
      "nee": 5056,
      "Young": 5057,
      "companion": 5058,
      "construction": 5059,
      "determined": 5060,
      "peekaboo": 5061,
      "Long": 5062,
      "bac": 5063,
      "bare": 5064,
      "flight": 5065,
      "yay": 5066,
      "offered": 5067,
      "drama": 5068,
      "dragon": 5069,
      "Order": 5070,
      "nuts": 5071,
      "goal": 5072,
      "upset": 5073,
      "ulous": 5074,
      "Marilla": 5075,
      "decide": 5076,
      "agged": 5077,
      "throws": 5078,
      "travel": 5079,
      "utenant": 5080,
      "Urs": 5081,
      "mere": 5082,
      "thrown": 5083,
      "heaven": 5084,
      "stops": 5085,
      "sery": 5086,
      "smiling": 5087,
      "drops": 5088,
      "Margaret": 5089,
      "',": 5090,
      "Bull": 5091,
      "Del": 5092,
      "via": 5093,
      "release": 5094,
      "redu": 5095,
      "tooth": 5096,
      "fourth": 5097,
      "amazing": 5098,
      "fortune": 5099,
      "suggested": 5100,
      "witness": 5101,
      "CON": 5102,
      "Jason": 5103,
      "Net": 5104,
      "Show": 5105,
      "[.": 5106,
      "esti": 5107,
      "trou": 5108,
      "190": 5109,
      "realize": 5110,
      "relationship": 5111,
      "NN": 5112,
      "thee": 5113,
      "shopping": 5114,
      "formula": 5115,
      "palace": 5116,
      "memory": 5117,
      "Land": 5118,
      "lan": 5119,
      "yummy": 5120,
      "request": 5121,
      "accom": 5122,
      "presence": 5123,
      "Alright": 5124,
      "horri": 5125,
      "Shut": 5126,
      "screen": 5127,
      "Billy": 5128,
      "Lie": 5129,
      "NOT": 5130,
      "Sel": 5131,
      "iot": 5132,
      "zoo": 5133,
      "Ark": 5134,
      "barn": 5135,
      "Robin": 5136,
      "Mont": 5137,
      "Tal": 5138,
      "Ver": 5139,
      "aring": 5140,
      "sets": 5141,
      "opens": 5142,
      "feelings": 5143,
      "Steph": 5144,
      "Post": 5145,
      "response": 5146,
      "frogs": 5147,
      "rasp": 5148,
      "fficient": 5149,
      "gor": 5150,
      "afford": 5151,
      "print": 5152,
      "passing": 5153,
      "riding": 5154,
      "governor": 5155,
      "folk": 5156,
      "jigsaw": 5157,
      "grat": 5158,
      "minal": 5159,
      "ultan": 5160,
      "Didn": 5161,
      "Ox": 5162,
      "Spe": 5163,
      "cad": 5164,
      "ware": 5165,
      "armed": 5166,
      "eather": 5167,
      "plastic": 5168,
      "boats": 5169,
      "recognized": 5170,
      "Baby": 5171,
      "horn": 5172,
      "enced": 5173,
      "cock": 5174,
      "obje": 5175,
      "central": 5176,
      "Okla": 5177,
      "Awww": 5178,
      "Won": 5179,
      "Women": 5180,
      "fond": 5181,
      "tot": 5182,
      "dolly": 5183,
      "debut": 5184,
      "2002": 5185,
      "According": 5186,
      "Dam": 5187,
      "Fire": 5188,
      "Kar": 5189,
      "Spain": 5190,
      "Up": 5191,
      "[$=": 5192,
      "bie": 5193,
      "cies": 5194,
      "require": 5195,
      "roo": 5196,
      "fox": 5197,
      "grace": 5198,
      "izza": 5199,
      "greatest": 5200,
      "Roger": 5201,
      "kinds": 5202,
      "2001": 5203,
      "conscious": 5204,
      "nursery": 5205,
      "HAVE": 5206,
      "Bay": 5207,
      "Fam": 5208,
      "Fine": 5209,
      "Lake": 5210,
      "furn": 5211,
      "narrow": 5212,
      "socks": 5213,
      "tied": 5214,
      "plat": 5215,
      "stranger": 5216,
      "Comp": 5217,
      "bury": 5218,
      "uttered": 5219,
      "gradu": 5220,
      "Virginia": 5221,
      "Oklahoma": 5222,
      "Care": 5223,
      "hes": 5224,
      "site": 5225,
      "assu": 5226,
      "saf": 5227,
      "dying": 5228,
      "shoulders": 5229,
      "everywhere": 5230,
      "Olympics": 5231,
      "DS": 5232,
      "IL": 5233,
      "km": 5234,
      "histor": 5235,
      "tap": 5236,
      "northern": 5237,
      "judge": 5238,
      "investig": 5239,
      "Kim": 5240,
      "Sa": 5241,
      "mouse": 5242,
      "ody": 5243,
      "inky": 5244,
      "ille": 5245,
      "thoughts": 5246,
      "rooms": 5247,
      "achie": 5248,
      "value": 5249,
      "excitement": 5250,
      "Cr": 5251,
      "Far": 5252,
      "dust": 5253,
      "migr": 5254,
      "asha": 5255,
      "larger": 5256,
      "ilian": 5257,
      "frightened": 5258,
      "Abe": 5259,
      "HAR": 5260,
      "IE": 5261,
      "tub": 5262,
      "resent": 5263,
      "udd": 5264,
      "remembered": 5265,
      "offici": 5266,
      "Santa": 5267,
      "Remi": 5268,
      "Under": 5269,
      "Girl": 5270,
      "Ob": 5271,
      "Turn": 5272,
      "Time": 5273,
      "lic": 5274,
      "vous": 5275,
      "talks": 5276,
      "matters": 5277,
      "data": 5278,
      "Hor": 5279,
      "Son": 5280,
      "glo": 5281,
      "wis": 5282,
      "wipe": 5283,
      "hook": 5284,
      "arts": 5285,
      "Harold": 5286,
      "issues": 5287,
      "Airport": 5288,
      "Vis": 5289,
      "dete": 5290,
      "lam": 5291,
      "vil": 5292,
      "umn": 5293,
      "peas": 5294,
      "aston": 5295,
      "buried": 5296,
      "pushed": 5297,
      "Jimmy": 5298,
      "econom": 5299,
      "Ala": 5300,
      "duh": 5301,
      "vice": 5302,
      "stir": 5303,
      "owner": 5304,
      "prepar": 5305,
      "powerful": 5306,
      "explained": 5307,
      "relative": 5308,
      "(;": 5309,
      "Camp": 5310,
      "Nic": 5311,
      "Town": 5312,
      "tion": 5313,
      "bee": 5314,
      "Stand": 5315,
      "studied": 5316,
      "Juli": 5317,
      "Super": 5318,
      "Governor": 5319,
      "Brown": 5320,
      "Ka": 5321,
      "rank": 5322,
      "atory": 5323,
      "escap": 5324,
      "dio": 5325,
      "bone": 5326,
      "sink": 5327,
      "carriage": 5328,
      "Bradley": 5329,
      "wheels": 5330,
      "Turk": 5331,
      "Braz": 5332,
      "file": 5333,
      "wine": 5334,
      "aly": 5335,
      "ential": 5336,
      "ilities": 5337,
      "inton": 5338,
      "gling": 5339,
      "farmer": 5340,
      "mainly": 5341,
      "apping": 5342,
      "drawn": 5343,
      "Ruth": 5344,
      "Cromer": 5345,
      "Str": 5346,
      "wave": 5347,
      "etro": 5348,
      "shed": 5349,
      "strate": 5350,
      "greater": 5351,
      "baseball": 5352,
      "Music": 5353,
      "Africa": 5354,
      "directly": 5355,
      "Angeles": 5356,
      "understood": 5357,
      "500": 5358,
      "Has": 5359,
      "KAR": 5360,
      "TT": 5361,
      "gers": 5362,
      "gift": 5363,
      "leans": 5364,
      "veh": 5365,
      "poo": 5366,
      "picking": 5367,
      "queer": 5368,
      "itors": 5369,
      "Earth": 5370,
      "annah": 5371,
      "Windows": 5372,
      "Mia": 5373,
      "Ra": 5374,
      "cit": 5375,
      "beth": 5376,
      "aving": 5377,
      "normally": 5378,
      "sentence": 5379,
      "bowl": 5380,
      "instant": 5381,
      "wedding": 5382,
      "36": 5383,
      "Brian": 5384,
      "Hun": 5385,
      "ience": 5386,
      "advan": 5387,
      "urity": 5388,
      "Mayenne": 5389,
      "planning": 5390,
      "Bes": 5391,
      "[?": 5392,
      "science": 5393,
      "anning": 5394,
      "trous": 5395,
      "ila": 5396,
      "Arab": 5397,
      "cooking": 5398,
      "referring": 5399,
      "Georgia": 5400,
      "Happ": 5401,
      "ners": 5402,
      "rise": 5403,
      "thur": 5404,
      "stones": 5405,
      "becoming": 5406,
      "roles": 5407,
      "dey": 5408,
      "oph": 5409,
      "wore": 5410,
      "gging": 5411,
      "prize": 5412,
      "Move": 5413,
      "suspic": 5414,
      "pillow": 5415,
      "average": 5416,
      "HO": 5417,
      "dess": 5418,
      "yards": 5419,
      "ades": 5420,
      "untie": 5421,
      "shark": 5422,
      "Nobody": 5423,
      "cloth": 5424,
      "Eric": 5425,
      "Both": 5426,
      "treas": 5427,
      "inois": 5428,
      "recently": 5429,
      "WITH": 5430,
      "safety": 5431,
      "Bon": 5432,
      "Dutch": 5433,
      "Emp": 5434,
      "Fed": 5435,
      "UR": 5436,
      "mama": 5437,
      "intell": 5438,
      "umber": 5439,
      "includes": 5440,
      "evil": 5441,
      "Republic": 5442,
      "reckon": 5443,
      "episode": 5444,
      "omy": 5445,
      "wid": 5446,
      "chin": 5447,
      "sore": 5448,
      "estim": 5449,
      "igan": 5450,
      "spill": 5451,
      "Road": 5452,
      "Italy": 5453,
      "Possum": 5454,
      "gree": 5455,
      "astern": 5456,
      "liber": 5457,
      "unknown": 5458,
      "arest": 5459,
      "Dolly": 5460,
      "marriage": 5461,
      "Army": 5462,
      "recognize": 5463,
      "Illinois": 5464,
      "mirror": 5465,
      "opinion": 5466,
      "Sto": 5467,
      "icles": 5468,
      "aging": 5469,
      "clam": 5470,
      "friendly": 5471,
      "1995": 5472,
      "Major": 5473,
      "Russia": 5474,
      "expression": 5475,
      "gabr": 5476,
      "Bak": 5477,
      "tum": 5478,
      "biggest": 5479,
      "Barty": 5480,
      "committee": 5481,
      "magazine": 5482,
      "Dou": 5483,
      "Dep": 5484,
      "Him": 5485,
      "Zeal": 5486,
      "jail": 5487,
      "rial": 5488,
      "shel": 5489,
      "worn": 5490,
      "grate": 5491,
      "shook": 5492,
      "weethe": 5493,
      "native": 5494,
      "Court": 5495,
      "dunno": 5496,
      "apparently": 5497,
      "uts": 5498,
      "Think": 5499,
      "Star": 5500,
      "chee": 5501,
      "Poor": 5502,
      "UST": 5503,
      "nament": 5504,
      "frequ": 5505,
      "quarters": 5506,
      "Professor": 5507,
      "?'": 5508,
      "Cho": 5509,
      "Pop": 5510,
      "tend": 5511,
      "inno": 5512,
      "tool": 5513,
      "itation": 5514,
      "locked": 5515,
      "amed": 5516,
      "voices": 5517,
      "tribe": 5518,
      "circumstances": 5519,
      "45": 5520,
      "Bas": 5521,
      "pitch": 5522,
      "sar": 5523,
      "het": 5524,
      "meth": 5525,
      "agent": 5526,
      "cats": 5527,
      "wondering": 5528,
      "reply": 5529,
      "horsie": 5530,
      "tradition": 5531,
      "established": 5532,
      "TI": 5533,
      "TS": 5534,
      "leap": 5535,
      "vels": 5536,
      "weird": 5537,
      "positive": 5538,
      "helps": 5539,
      "engaged": 5540,
      "beauty": 5541,
      "property": 5542,
      "separate": 5543,
      "familiar": 5544,
      "Den": 5545,
      "mund": 5546,
      "isto": 5547,
      "llen": 5548,
      "boom": 5549,
      "international": 5550,
      "pressure": 5551,
      "Edward": 5552,
      "Alfgar": 5553,
      "Pilchard": 5554,
      "Ray": 5555,
      "Went": 5556,
      "acks": 5557,
      "desper": 5558,
      "jobs": 5559,
      "Kingdom": 5560,
      "arrang": 5561,
      "languages": 5562,
      "currently": 5563,
      "Democratic": 5564,
      "Arkansas": 5565,
      "weetheart": 5566,
      "pizza": 5567,
      "instru": 5568,
      "theast": 5569,
      "attract": 5570,
      "asc": 5571,
      "chest": 5572,
      "Art": 5573,
      "1994": 5574,
      "Prince": 5575,
      "receive": 5576,
      "Football": 5577,
      "failed": 5578,
      "African": 5579,
      "selected": 5580,
      "performance": 5581,
      "totally": 5582,
      "Dun": 5583,
      "Mot": 5584,
      "inju": 5585,
      "lyn": 5586,
      "contain": 5587,
      "shouted": 5588,
      "BY": 5589,
      "Men": 5590,
      "Tilda": 5591,
      "bones": 5592,
      "slo": 5593,
      "reasons": 5594,
      "isher": 5595,
      "beha": 5596,
      "coal": 5597,
      "constit": 5598,
      "ishing": 5599,
      "pron": 5600,
      "cruel": 5601,
      "eaten": 5602,
      "fourteen": 5603,
      "boxes": 5604,
      "highest": 5605,
      "pulling": 5606,
      "dreams": 5607,
      "responsible": 5608,
      "electric": 5609,
      "Dear": 5610,
      "Try": 5611,
      "bent": 5612,
      "wished": 5613,
      "atta": 5614,
      "oft": 5615,
      "medical": 5616,
      "hurried": 5617,
      "advice": 5618,
      "99": 5619,
      "Agn": 5620,
      "Five": 5621,
      "jun": 5622,
      "san": 5623,
      "removed": 5624,
      "doggy": 5625,
      "chase": 5626,
      "performed": 5627,
      "Stu": 5628,
      "cookies": 5629,
      "whispering": 5630,
      "Egy": 5631,
      "ached": 5632,
      "verse": 5633,
      "cru": 5634,
      "eats": 5635,
      "described": 5636,
      "Eliza": 5637,
      "Championship": 5638,
      "Back": 5639,
      "Later": 5640,
      "itar": 5641,
      "holes": 5642,
      "Chan": 5643,
      "disappeared": 5644,
      "pale": 5645,
      "southern": 5646,
      "entirely": 5647,
      "Francis": 5648,
      "\"'": 5649,
      "Ned": 5650,
      "dim": 5651,
      "mort": 5652,
      "veget": 5653,
      "urance": 5654,
      "results": 5655,
      "thirteen": 5656,
      "exciting": 5657,
      "Britain": 5658,
      "communic": 5659,
      "transfer": 5660,
      "activity": 5661,
      "biscu": 5662,
      ",]": 5663,
      "FC": 5664,
      "IA": 5665,
      "Im": 5666,
      "MO": 5667,
      "sche": 5668,
      "ghost": 5669,
      "eping": 5670,
      "matches": 5671,
      "paying": 5672,
      "individual": 5673,
      "newspaper": 5674,
      "Nick": 5675,
      "tummy": 5676,
      "ata": 5677,
      "rope": 5678,
      "forever": 5679,
      "complet": 5680,
      "security": 5681,
      "1997": 5682,
      "Whoa": 5683,
      "appropri": 5684,
      "delicious": 5685,
      "Mich": 5686,
      "fund": 5687,
      "heal": 5688,
      "somehow": 5689,
      "conce": 5690,
      "ulations": 5691,
      "shame": 5692,
      "1996": 5693,
      "eastern": 5694,
      "lifted": 5695,
      "Fer": 5696,
      "dum": 5697,
      "rick": 5698,
      "icing": 5699,
      "covers": 5700,
      "ARE": 5701,
      "joke": 5702,
      "188": 5703,
      "fairy": 5704,
      "fields": 5705,
      "gentlemen": 5706,
      "increase": 5707,
      "touched": 5708,
      "MW": 5709,
      "Open": 5710,
      "sin": 5711,
      "nod": 5712,
      "poem": 5713,
      "damage": 5714,
      "Secretary": 5715,
      "multi": 5716,
      "\"?": 5717,
      "Greek": 5718,
      "han": 5719,
      "oy": 5720,
      "pian": 5721,
      "administr": 5722,
      "degree": 5723,
      "artist": 5724,
      "provided": 5725,
      "Mickey": 5726,
      "Congress": 5727,
      "fence": 5728,
      "mile": 5729,
      "pump": 5730,
      "endid": 5731,
      "rig": 5732,
      "riend": 5733,
      "quack": 5734,
      "geant": 5735,
      "disse": 5736,
      "smiled": 5737,
      "sixteen": 5738,
      "valu": 5739,
      "signific": 5740,
      "switch": 5741,
      "hammer": 5742,
      "Province": 5743,
      "operation": 5744,
      "sniff": 5745,
      "students": 5746,
      "Bor": 5747,
      "Bea": 5748,
      "DON": 5749,
      "Fl": 5750,
      "ito": 5751,
      "”.": 5752,
      "instr": 5753,
      "quid": 5754,
      "provide": 5755,
      "ideas": 5756,
      "ANG": 5757,
      "Mission": 5758,
      "Newman": 5759,
      "cutting": 5760,
      "1992": 5761,
      "slave": 5762,
      "YOUR": 5763,
      "glasses": 5764,
      "tomato": 5765,
      "jesty": 5766,
      "Zealand": 5767,
      "Hmm": 5768,
      "Rush": 5769,
      "Sil": 5770,
      "pile": 5771,
      "inhabit": 5772,
      "atic": 5773,
      "eddin": 5774,
      "rill": 5775,
      "terror": 5776,
      "burning": 5777,
      "Brother": 5778,
      "jumped": 5779,
      "horrible": 5780,
      "Tor": 5781,
      "aur": 5782,
      "tough": 5783,
      "loose": 5784,
      "breaking": 5785,
      "Arch": 5786,
      "Should": 5787,
      "trousers": 5788,
      "Cause": 5789,
      "FE": 5790,
      "pred": 5791,
      "minister": 5792,
      "glance": 5793,
      "beneath": 5794,
      "folks": 5795,
      "Canadian": 5796,
      "advantage": 5797,
      "Alaeddin": 5798,
      "Cy": 5799,
      "JUD": 5800,
      "Pet": 5801,
      "Yu": 5802,
      "nology": 5803,
      "shh": 5804,
      "Andy": 5805,
      "desire": 5806,
      "musical": 5807,
      "invited": 5808,
      "BUT": 5809,
      "sweetheart": 5810,
      "tles": 5811,
      "oul": 5812,
      "reign": 5813,
      "upper": 5814,
      "saving": 5815,
      "Down": 5816,
      "Manchester": 5817,
      "specific": 5818,
      "boots": 5819,
      "puppy": 5820,
      "influence": 5821,
      "Papa": 5822,
      "Elizabeth": 5823,
      "Center": 5824,
      "Ele": 5825,
      "rug": 5826,
      "rey": 5827,
      "replaced": 5828,
      "types": 5829,
      "acted": 5830,
      "Sovi": 5831,
      "bitch": 5832,
      "1998": 5833,
      "Leave": 5834,
      "Wolf": 5835,
      "chemical": 5836,
      "48": 5837,
      "End": 5838,
      "Kansas": 5839,
      "brings": 5840,
      "particip": 5841,
      "owned": 5842,
      "Associ": 5843,
      "chairs": 5844,
      "soldier": 5845,
      "characters": 5846,
      "IDS": 5847,
      "authority": 5848,
      "occurred": 5849,
      "Actually": 5850,
      "Southern": 5851,
      "Help": 5852,
      "Next": 5853,
      "Uk": 5854,
      "fet": 5855,
      "rum": 5856,
      "attemp": 5857,
      "handed": 5858,
      "hmm": 5859,
      "Ann": 5860,
      "mountains": 5861,
      "screams": 5862,
      "Prime": 5863,
      "branch": 5864,
      "powder": 5865,
      "gathered": 5866,
      "jacket": 5867,
      "GR": 5868,
      "VI": 5869,
      "tering": 5870,
      "umbo": 5871,
      "delay": 5872,
      "brand": 5873,
      "stomach": 5874,
      "string": 5875,
      "Arthur": 5876,
      "warri": 5877,
      "facing": 5878,
      "Bir": 5879,
      "Cross": 5880,
      "Fair": 5881,
      "Ow": 5882,
      "Six": 5883,
      "faint": 5884,
      "mike": 5885,
      "garage": 5886,
      "stepped": 5887,
      "changing": 5888,
      "Jeff": 5889,
      "destroyed": 5890,
      "weapons": 5891,
      "Ramsey": 5892,
      "Run": 5893,
      "lack": 5894,
      "sie": 5895,
      "toi": 5896,
      "forgive": 5897,
      "tives": 5898,
      "demon": 5899,
      "ilty": 5900,
      "ppers": 5901,
      "grun": 5902,
      "brary": 5903,
      "disease": 5904,
      "laught": 5905,
      "strug": 5906,
      "useful": 5907,
      "ESS": 5908,
      "nearer": 5909,
      "pattern": 5910,
      "Davis": 5911,
      "collect": 5912,
      "washing": 5913,
      "enjoyed": 5914,
      "weapon": 5915,
      "32": 5916,
      "70": 5917,
      "Ky": 5918,
      "OP": 5919,
      "Sit": 5920,
      "rance": 5921,
      "ua": 5922,
      "winning": 5923,
      "ounds": 5924,
      "attend": 5925,
      "Edmund": 5926,
      "barr": 5927,
      "Gor": 5928,
      "UCK": 5929,
      "fate": 5930,
      "pas": 5931,
      "reser": 5932,
      "concent": 5933,
      "ulated": 5934,
      "quit": 5935,
      "woo": 5936,
      "focus": 5937,
      "hearing": 5938,
      "fired": 5939,
      "pursu": 5940,
      "Cer": 5941,
      "Sher": 5942,
      "lone": 5943,
      "access": 5944,
      "liar": 5945,
      "contr": 5946,
      "woke": 5947,
      "items": 5948,
      "OULD": 5949,
      "production": 5950,
      "madam": 5951,
      "candy": 5952,
      "Casson": 5953,
      "App": 5954,
      "Rod": 5955,
      "Sultan": 5956,
      "cash": 5957,
      "uff": 5958,
      "vy": 5959,
      "plus": 5960,
      "lax": 5961,
      "survi": 5962,
      "Boston": 5963,
      "learning": 5964,
      "honour": 5965,
      "policeman": 5966,
      "banana": 5967,
      "score": 5968,
      "Central": 5969,
      "material": 5970,
      "Wentworth": 5971,
      "Bible": 5972,
      "bay": 5973,
      "border": 5974,
      "eed": 5975,
      "rare": 5976,
      "incident": 5977,
      "bec": 5978,
      "beast": 5979,
      "ods": 5980,
      "seek": 5981,
      "obli": 5982,
      "Stay": 5983,
      "Make": 5984,
      "distur": 5985,
      "Swed": 5986,
      "butterfly": 5987,
      "interrupts": 5988,
      "Spr": 5989,
      "rust": 5990,
      "waves": 5991,
      "portion": 5992,
      "ERS": 5993,
      "rolls": 5994,
      "corpor": 5995,
      "gained": 5996,
      "society": 5997,
      "shooting": 5998,
      "comedy": 5999,
      "Each": 6000,
      "Gil": 6001,
      "MAR": 6002,
      "Pau": 6003,
      "Western": 6004,
      "oki": 6005,
      "neg": 6006,
      "maid": 6007,
      "earnest": 6008,
      "rows": 6009,
      "chosen": 6010,
      "giant": 6011,
      "Remember": 6012,
      "ladder": 6013,
      "curious": 6014,
      "Daniel": 6015,
      "defend": 6016,
      "--------------------------------": 6017,
      "Ukrain": 6018,
      "KING": 6019,
      "MC": 6020,
      "Sho": 6021,
      "eme": 6022,
      "forts": 6023,
      "urs": 6024,
      "bodies": 6025,
      "proced": 6026,
      "create": 6027,
      "drove": 6028,
      "Commun": 6029,
      "pushing": 6030,
      "circus": 6031,
      "freed": 6032,
      "Australian": 6033,
      "estival": 6034,
      "\"]": 6035,
      "pages": 6036,
      "pension": 6037,
      "nope": 6038,
      "acid": 6039,
      "minor": 6040,
      "mond": 6041,
      "interview": 6042,
      "closely": 6043,
      "cups": 6044,
      "pushes": 6045,
      "darkness": 6046,
      "sweetie": 6047,
      "designed": 6048,
      "rushed": 6049,
      "Olympic": 6050,
      "arrested": 6051,
      "Fanning": 6052,
      "esota": 6053,
      "cave": 6054,
      "observed": 6055,
      "Book": 6056,
      "drown": 6057,
      "weekend": 6058,
      "Club": 6059,
      "suspect": 6060,
      "HHH": 6061,
      "Minnesota": 6062,
      "lamb": 6063,
      "ography": 6064,
      "ingu": 6065,
      "mode": 6066,
      "Alice": 6067,
      "rising": 6068,
      "equip": 6069,
      "smooth": 6070,
      "appointment": 6071,
      "accepted": 6072,
      "galley": 6073,
      "families": 6074,
      "lemme": 6075,
      "Pakistan": 6076,
      "Happy": 6077,
      "CAN": 6078,
      "Sur": 6079,
      "ths": 6080,
      "beep": 6081,
      "tily": 6082,
      "throughout": 6083,
      "1993": 6084,
      "Commit": 6085,
      "laws": 6086,
      "cookie": 6087,
      "failure": 6088,
      "Haw": 6089,
      "Off": 6090,
      "oop": 6091,
      "rhy": 6092,
      "alous": 6093,
      "imme": 6094,
      "anted": 6095,
      "propos": 6096,
      "bricks": 6097,
      "cloud": 6098,
      "guilty": 6099,
      "smiles": 6100,
      "surely": 6101,
      "Holly": 6102,
      "kidding": 6103,
      "Everyone": 6104,
      "reported": 6105,
      "SOME": 6106,
      "Graeme": 6107,
      "Agnes": 6108,
      "33": 6109,
      "Team": 6110,
      "UGH": 6111,
      "oked": 6112,
      "anton": 6113,
      "apt": 6114,
      "headed": 6115,
      "highly": 6116,
      "splendid": 6117,
      "introduced": 6118,
      "47": 6119,
      "ae": 6120,
      "lick": 6121,
      "sang": 6122,
      "tank": 6123,
      "toe": 6124,
      "hal": 6125,
      "Johnson": 6126,
      "Eddie": 6127,
      "signal": 6128,
      "LEA": 6129,
      "RIC": 6130,
      "strike": 6131,
      "Mexican": 6132,
      "raspberry": 6133,
      "Nord": 6134,
      "Rat": 6135,
      "crown": 6136,
      "gay": 6137,
      "skill": 6138,
      "lored": 6139,
      "ANT": 6140,
      "Also": 6141,
      "1990": 6142,
      "Joey": 6143,
      "elder": 6144,
      "Gabrie": 6145,
      "Michigan": 6146,
      "Cath": 6147,
      "Les": 6148,
      "Sara": 6149,
      "gt": 6150,
      "tes": 6151,
      ".\"]": 6152,
      "sipp": 6153,
      "uded": 6154,
      "Anna": 6155,
      "hurts": 6156,
      "besides": 6157,
      "Patty": 6158,
      "Greater": 6159,
      "faster": 6160,
      "mary": 6161,
      "thed": 6162,
      "upside": 6163,
      "suck": 6164,
      "badly": 6165,
      "speaks": 6166,
      "competition": 6167,
      "LIN": 6168,
      "Ten": 6169,
      "ani": 6170,
      "anch": 6171,
      "ros": 6172,
      "pee": 6173,
      "divided": 6174,
      "pted": 6175,
      "1986": 6176,
      "citiz": 6177,
      "Besides": 6178,
      "Soviet": 6179,
      "Winn": 6180,
      "gaz": 6181,
      "rice": 6182,
      "incred": 6183,
      "rif": 6184,
      "traf": 6185,
      "hasta": 6186,
      "intended": 6187,
      "produce": 6188,
      "climbing": 6189,
      "pitched": 6190,
      "Jerry": 6191,
      "Jenny": 6192,
      "Company": 6193,
      "toilet": 6194,
      "Bang": 6195,
      "OH": 6196,
      "awa": 6197,
      "bio": 6198,
      "witch": 6199,
      "Rock": 6200,
      "tribes": 6201,
      "realized": 6202,
      "Pooh": 6203,
      "sque": 6204,
      "washed": 6205,
      "crossed": 6206,
      "programme": 6207,
      "selling": 6208,
      "mummie": 6209,
      "intellig": 6210,
      "traffic": 6211,
      "GIN": 6212,
      "Jumbo": 6213,
      "Pen": 6214,
      "league": 6215,
      "perform": 6216,
      "division": 6217,
      "strict": 6218,
      "chain": 6219,
      "standard": 6220,
      "cents": 6221,
      "restaur": 6222,
      "ception": 6223,
      "Tommy": 6224,
      "marked": 6225,
      "records": 6226,
      "recording": 6227,
      "confess": 6228,
      "Williams": 6229,
      "tournament": 6230,
      "fortunately": 6231,
      "difficulty": 6232,
      "Oxford": 6233,
      "appropriate": 6234,
      "map": 6235,
      "alarm": 6236,
      "university": 6237,
      "sprang": 6238,
      "listened": 6239,
      "1991": 6240,
      "charged": 6241,
      "truly": 6242,
      "Everybody": 6243,
      "princess": 6244,
      "balance": 6245,
      "Such": 6246,
      "wounded": 6247,
      "avoid": 6248,
      "Committee": 6249,
      "Cont": 6250,
      "KK": 6251,
      "fra": 6252,
      "flies": 6253,
      "isha": 6254,
      "icop": 6255,
      "poison": 6256,
      "actions": 6257,
      "divor": 6258,
      "Station": 6259,
      "kindly": 6260,
      "185": 6261,
      "flash": 6262,
      "whee": 6263,
      "buildings": 6264,
      "marks": 6265,
      "raining": 6266,
      "collection": 6267,
      "entertain": 6268,
      "apartment": 6269,
      "mixed": 6270,
      "drugs": 6271,
      "nominated": 6272,
      "anced": 6273,
      "tox": 6274,
      "enger": 6275,
      "severe": 6276,
      "wire": 6277,
      "umed": 6278,
      "resour": 6279,
      "commer": 6280,
      "spin": 6281,
      "actual": 6282,
      "pregn": 6283,
      "harder": 6284,
      "Comm": 6285,
      "suffered": 6286,
      "settlement": 6287,
      "Republican": 6288,
      "captured": 6289,
      "Vaud": 6290,
      "bul": 6291,
      "vest": 6292,
      "inc": 6293,
      "arg": 6294,
      "rib": 6295,
      "sheet": 6296,
      "pel": 6297,
      "auto": 6298,
      "somethin": 6299,
      "shadow": 6300,
      "spector": 6301,
      "Second": 6302,
      "engers": 6303,
      "queen": 6304,
      "arron": 6305,
      "equal": 6306,
      "slept": 6307,
      "credit": 6308,
      "KNOW": 6309,
      "Watch": 6310,
      "Ki": 6311,
      "Wind": 6312,
      "wey": 6313,
      "clou": 6314,
      "aws": 6315,
      "grandmother": 6316,
      "Kelly": 6317,
      "recorder": 6318,
      "equipment": 6319,
      "Ash": 6320,
      "Blo": 6321,
      "Bio": 6322,
      "Fil": 6323,
      "HL": 6324,
      "Kir": 6325,
      "Pi": 6326,
      "dough": 6327,
      "sword": 6328,
      "enem": 6329,
      "inda": 6330,
      "yside": 6331,
      "cris": 6332,
      "seriously": 6333,
      "Americans": 6334,
      "killing": 6335,
      "hearts": 6336,
      "fecture": 6337,
      "split": 6338,
      "Build": 6339,
      "Cast": 6340,
      "Sub": 6341,
      "dwell": 6342,
      "pite": 6343,
      "tent": 6344,
      "tender": 6345,
      "union": 6346,
      "spare": 6347,
      "Whatever": 6348,
      "oted": 6349,
      "desc": 6350,
      "OUN": 6351,
      "planned": 6352,
      "kissing": 6353,
      "recorded": 6354,
      "chips": 6355,
      "companies": 6356,
      "Korea": 6357,
      "critic": 6358,
      "branches": 6359,
      "industry": 6360,
      "Hurry": 6361,
      "Squ": 6362,
      "Tra": 6363,
      "nick": 6364,
      "pad": 6365,
      "vine": 6366,
      "xim": 6367,
      "reeks": 6368,
      "trial": 6369,
      "���": 6370,
      "signs": 6371,
      "stern": 6372,
      "faced": 6373,
      "Anyway": 6374,
      "features": 6375,
      "dishes": 6376,
      "Ursula": 6377,
      "hetti": 6378,
      "arrondisse": 6379,
      "hug": 6380,
      "sending": 6381,
      "reme": 6382,
      "ador": 6383,
      "shine": 6384,
      "consequ": 6385,
      "proposed": 6386,
      "mighty": 6387,
      "----\"": 6388,
      "pointed": 6389,
      "trains": 6390,
      "factory": 6391,
      "originally": 6392,
      "hidden": 6393,
      "Faith": 6394,
      "Pac": 6395,
      "Rad": 6396,
      "fla": 6397,
      "invent": 6398,
      "congress": 6399,
      "proof": 6400,
      "berries": 6401,
      "olic": 6402,
      "cale": 6403,
      "content": 6404,
      "1988": 6405,
      "kissed": 6406,
      "checked": 6407,
      "Police": 6408,
      "jumping": 6409,
      "apolog": 6410,
      "satisfied": 6411,
      "MI": 6412,
      "Sax": 6413,
      "relax": 6414,
      "drunk": 6415,
      "presently": 6416,
      "blowing": 6417,
      "streets": 6418,
      "Represent": 6419,
      "treated": 6420,
      "candid": 6421,
      "target": 6422,
      "Glory": 6423,
      "source": 6424,
      "mobile": 6425,
      "grateful": 6426,
      "Gabriella": 6427,
      "Cher": 6428,
      "Penn": 6429,
      "rd": 6430,
      "||": 6431,
      "beer": 6432,
      "...\"": 6433,
      "resist": 6434,
      "setting": 6435,
      "Dewey": 6436,
      "efforts": 6437,
      "fier": 6438,
      "vocalizes": 6439,
      "channel": 6440,
      "38": 6441,
      "Jake": 6442,
      "Sav": 6443,
      "Yep": 6444,
      "fare": 6445,
      "pity": 6446,
      "theory": 6447,
      "issa": 6448,
      "ari": 6449,
      "wha": 6450,
      "stal": 6451,
      "greatly": 6452,
      "ceremon": 6453,
      "Katie": 6454,
      "appreciate": 6455,
      "laughter": 6456,
      "Hannah": 6457,
      "Lwww": 6458,
      "Si": 6459,
      "lon": 6460,
      "link": 6461,
      "oned": 6462,
      "reve": 6463,
      "sters": 6464,
      "weet": 6465,
      "bug": 6466,
      "preser": 6467,
      "contest": 6468,
      "lads": 6469,
      "EST": 6470,
      "1987": 6471,
      "borrow": 6472,
      "burned": 6473,
      "precious": 6474,
      "Family": 6475,
      "Association": 6476,
      "enemies": 6477,
      "Lower": 6478,
      "Wed": 6479,
      "Year": 6480,
      "stable": 6481,
      "becomes": 6482,
      "loving": 6483,
      "ima": 6484,
      "resign": 6485,
      "cture": 6486,
      "handsome": 6487,
      "squir": 6488,
      "Someone": 6489,
      "decor": 6490,
      "majority": 6491,
      "victory": 6492,
      "distributed": 6493,
      "piano": 6494,
      "37": 6495,
      "Jud": 6496,
      "OD": 6497,
      "yy": 6498,
      "bears": 6499,
      "alds": 6500,
      "bold": 6501,
      "ante": 6502,
      "ained": 6503,
      "baba": 6504,
      "oldest": 6505,
      "helicop": 6506,
      "colour": 6507,
      "jealous": 6508,
      "dale": 6509,
      "grandfather": 6510,
      "steady": 6511,
      "flew": 6512,
      "breast": 6513,
      "nuclear": 6514,
      "independent": 6515,
      "rapidly": 6516,
      "Ral": 6517,
      "pus": 6518,
      "vig": 6519,
      "admir": 6520,
      "rier": 6521,
      "hoping": 6522,
      "hockey": 6523,
      "sav": 6524,
      "sufficient": 6525,
      "venue": 6526,
      "brace": 6527,
      "finds": 6528,
      "contribut": 6529,
      "wondered": 6530,
      "expensive": 6531,
      "Madam": 6532,
      "lonely": 6533,
      "Honey": 6534,
      "Pir": 6535,
      "bump": 6536,
      "gimme": 6537,
      "eration": 6538,
      "belly": 6539,
      "unit": 6540,
      "exha": 6541,
      "Missis": 6542,
      "1989": 6543,
      "Anything": 6544,
      "slipped": 6545,
      "pipe": 6546,
      "briefly": 6547,
      "fortunate": 6548,
      "document": 6549,
      "Ali": 6550,
      "Ari": 6551,
      "awake": 6552,
      "hut": 6553,
      "jury": 6554,
      "oke": 6555,
      "code": 6556,
      "diale": 6557,
      "Chuck": 6558,
      "breathing": 6559,
      "Looks": 6560,
      "sofa": 6561,
      "organization": 6562,
      "Mississipp": 6563,
      "DAN": 6564,
      "Dire": 6565,
      "Death": 6566,
      "FAD": 6567,
      "Nan": 6568,
      "owe": 6569,
      "revol": 6570,
      "altogether": 6571,
      "chop": 6572,
      "loso": 6573,
      "tram": 6574,
      "bitter": 6575,
      "medal": 6576,
      "effe": 6577,
      "cott": 6578,
      "confidence": 6579,
      "Shall": 6580,
      "Government": 6581,
      "management": 6582,
      "culture": 6583,
      "PS": 6584,
      "Pers": 6585,
      "cig": 6586,
      "neath": 6587,
      "ssing": 6588,
      "moans": 6589,
      "saus": 6590,
      "gras": 6591,
      "intend": 6592,
      "sons": 6593,
      "Alan": 6594,
      "appears": 6595,
      "draws": 6596,
      "Willie": 6597,
      "producer": 6598,
      "Probably": 6599,
      "seats": 6600,
      "Adams": 6601,
      "Danny": 6602,
      "prisoner": 6603,
      "tempor": 6604,
      "emergency": 6605,
      "evidently": 6606,
      "44": 6607,
      "Dave": 6608,
      "Es": 6609,
      "bust": 6610,
      "hen": 6611,
      "mist": 6612,
      "rage": 6613,
      "ws": 6614,
      "toria": 6615,
      "shr": 6616,
      "whenever": 6617,
      "stool": 6618,
      "Rome": 6619,
      "lessons": 6620,
      "stein": 6621,
      "1972": 6622,
      "potty": 6623,
      "pirates": 6624,
      "Baker": 6625,
      "Mississippi": 6626,
      "Auntie": 6627,
      "Hard": 6628,
      "Iran": 6629,
      "Tam": 6630,
      "WOR": 6631,
      "bage": 6632,
      "bunch": 6633,
      "roar": 6634,
      "blast": 6635,
      "blame": 6636,
      "gery": 6637,
      "THERE": 6638,
      "ERE": 6639,
      "nervous": 6640,
      "Shar": 6641,
      "Northern": 6642,
      "attacked": 6643,
      "creature": 6644,
      "Golden": 6645,
      "Rolan": 6646,
      "exercise": 6647,
      "escaped": 6648,
      "EV": 6649,
      "ckets": 6650,
      "vast": 6651,
      "wag": 6652,
      "erable": 6653,
      "noisy": 6654,
      "leaf": 6655,
      "betray": 6656,
      "icket": 6657,
      "dol": 6658,
      "ains": 6659,
      "guin": 6660,
      "uddle": 6661,
      "finan": 6662,
      "Isra": 6663,
      "studio": 6664,
      "sorts": 6665,
      "ibi": 6666,
      "Division": 6667,
      "sisters": 6668,
      "Ralph": 6669,
      "Bad": 6670,
      "Sally": 6671,
      "erous": 6672,
      "ases": 6673,
      "novel": 6674,
      "vering": 6675,
      "urally": 6676,
      "napp": 6677,
      "owl": 6678,
      "diam": 6679,
      "shaking": 6680,
      "aska": 6681,
      "ushed": 6682,
      "prior": 6683,
      "ugly": 6684,
      "Patrick": 6685,
      "professor": 6686,
      "olarship": 6687,
      "Latin": 6688,
      "cate": 6689,
      "cused": 6690,
      "couch": 6691,
      "eth": 6692,
      "toss": 6693,
      "mechan": 6694,
      "losing": 6695,
      "soap": 6696,
      "rifle": 6697,
      "IND": 6698,
      "workers": 6699,
      "voy": 6700,
      "persons": 6701,
      "passion": 6702,
      "1982": 6703,
      "legal": 6704,
      "thorough": 6705,
      "neighb": 6706,
      "represented": 6707,
      "regarded": 6708,
      "seventy": 6709,
      "hesit": 6710,
      "squeals": 6711,
      "CI": 6712,
      "Rose": 6713,
      "Water": 6714,
      "winner": 6715,
      "inquired": 6716,
      "gotten": 6717,
      "stove": 6718,
      "counts": 6719,
      "ISS": 6720,
      "shock": 6721,
      "presented": 6722,
      "1985": 6723,
      "Parliament": 6724,
      "mammy": 6725,
      "delighted": 6726,
      "journal": 6727,
      "relief": 6728,
      "arranged": 6729,
      "FI": 6730,
      "Rah": 6731,
      "Tre": 6732,
      "YE": 6733,
      "snee": 6734,
      "recomm": 6735,
      "whines": 6736,
      "hay": 6737,
      "shy": 6738,
      "icecream": 6739,
      "ileen": 6740,
      "clears": 6741,
      "Gran": 6742,
      "moments": 6743,
      "Fox": 6744,
      "fifth": 6745,
      "Disney": 6746,
      "imitates": 6747,
      "pirate": 6748,
      "giraffe": 6749,
      "Lit": 6750,
      "Lisa": 6751,
      "Mob": 6752,
      "nasty": 6753,
      "tis": 6754,
      "infe": 6755,
      "anno": 6756,
      "required": 6757,
      "gosh": 6758,
      "univer": 6759,
      "apples": 6760,
      "leton": 6761,
      "underneath": 6762,
      "THING": 6763,
      "compar": 6764,
      "increased": 6765,
      "advanced": 6766,
      "innocent": 6767,
      "Bank": 6768,
      "Eng": 6769,
      "Free": 6770,
      "kers": 6771,
      "pure": 6772,
      "vain": 6773,
      "uma": 6774,
      "spite": 6775,
      "peror": 6776,
      "supp": 6777,
      "keeper": 6778,
      "sooner": 6779,
      "volume": 6780,
      "struggle": 6781,
      "heavily": 6782,
      "Ford": 6783,
      "Moun": 6784,
      "Yo": 6785,
      "iest": 6786,
      "Group": 6787,
      "Majesty": 6788,
      "1979": 6789,
      "piggy": 6790,
      "stitute": 6791,
      "pronoun": 6792,
      "75": 6793,
      "FIF": 6794,
      "PH": 6795,
      "UL": 6796,
      "Wall": 6797,
      "los": 6798,
      "liance": 6799,
      "tific": 6800,
      "foreign": 6801,
      "parties": 6802,
      "farther": 6803,
      "Indeed": 6804,
      "follows": 6805,
      "Mean": 6806,
      "dollar": 6807,
      "swift": 6808,
      "shouting": 6809,
      "extent": 6810,
      "rupt": 6811,
      "transport": 6812,
      "Empire": 6813,
      "frame": 6814,
      "Boo": 6815,
      "GG": 6816,
      "RY": 6817,
      "eli": 6818,
      "ii": 6819,
      "adium": 6820,
      "canal": 6821,
      "cannon": 6822,
      "illness": 6823,
      "shakes": 6824,
      "client": 6825,
      "psycho": 6826,
      "religion": 6827,
      "Senate": 6828,
      "potatoes": 6829,
      "34": 6830,
      "39": 6831,
      "Lola": 6832,
      "PO": 6833,
      "Shi": 6834,
      "gust": 6835,
      "hunt": 6836,
      "tast": 6837,
      "ouri": 6838,
      "tories": 6839,
      "library": 6840,
      "mole": 6841,
      "bol": 6842,
      "romantic": 6843,
      "burgh": 6844,
      "villages": 6845,
      "Yorkshire": 6846,
      "session": 6847,
      "picnic": 6848,
      "cheeks": 6849,
      "behavi": 6850,
      "Bal": 6851,
      "Han": 6852,
      "Vill": 6853,
      "fits": 6854,
      "ore": 6855,
      "height": 6856,
      "aming": 6857,
      "aga": 6858,
      "sale": 6859,
      "ATION": 6860,
      "rescue": 6861,
      "goodbye": 6862,
      "click": 6863,
      "partly": 6864,
      "elev": 6865,
      "consist": 6866,
      "driven": 6867,
      "syl": 6868,
      "1980": 6869,
      "custom": 6870,
      "refused": 6871,
      "remains": 6872,
      "invest": 6873,
      "belongs": 6874,
      "croco": 6875,
      "desert": 6876,
      "student": 6877,
      "religious": 6878,
      "clouds": 6879,
      "Asia": 6880,
      "Lan": 6881,
      "Vo": 6882,
      "Yet": 6883,
      "__": 6884,
      "swell": 6885,
      "CHAR": 6886,
      "stole": 6887,
      "civil": 6888,
      "iana": 6889,
      "sites": 6890,
      "instance": 6891,
      "referred": 6892,
      "rubber": 6893,
      "pilot": 6894,
      "tricts": 6895,
      "responsibility": 6896,
      "limited": 6897,
      "measure": 6898,
      "stroke": 6899,
      "scratch": 6900,
      "accompl": 6901,
      "Stephen": 6902,
      "Postman": 6903,
      "Catholic": 6904,
      "FIFA": 6905,
      "Ball": 6906,
      "Hea": 6907,
      "Jr": 6908,
      "Porter": 6909,
      "tack": 6910,
      "income": 6911,
      "altern": 6912,
      "weigh": 6913,
      "colored": 6914,
      "pean": 6915,
      "aine": 6916,
      "ively": 6917,
      "visible": 6918,
      "189": 6919,
      "onsense": 6920,
      "paused": 6921,
      "engines": 6922,
      "cleaning": 6923,
      "amongst": 6924,
      "McGlory": 6925,
      "banks": 6926,
      "echo": 6927,
      "knight": 6928,
      "mn": 6929,
      "replace": 6930,
      "ayne": 6931,
      "aband": 6932,
      "Stanton": 6933,
      "lessly": 6934,
      "function": 6935,
      "solid": 6936,
      "salt": 6937,
      "spirits": 6938,
      "girlf": 6939,
      "Philip": 6940,
      "neighborhood": 6941,
      "occupied": 6942,
      "Broad": 6943,
      "Hol": 6944,
      "Were": 6945,
      "cart": 6946,
      "pant": 6947,
      "von": 6948,
      "initi": 6949,
      "thedr": 6950,
      "itz": 6951,
      "moo": 6952,
      "notes": 6953,
      "defe": 6954,
      "sible": 6955,
      "basically": 6956,
      "fleet": 6957,
      "advance": 6958,
      "slip": 6959,
      "buttons": 6960,
      "'...": 6961,
      "BI": 6962,
      "DER": 6963,
      "NHL": 6964,
      "ocean": 6965,
      "tch": 6966,
      "iture": 6967,
      "entrance": 6968,
      "unhappy": 6969,
      "improve": 6970,
      "bob": 6971,
      "uments": 6972,
      "gray": 6973,
      "stolen": 6974,
      "addle": 6975,
      "cheap": 6976,
      "mates": 6977,
      "coln": 6978,
      "yawn": 6979,
      "stronger": 6980,
      "Jackson": 6981,
      "effects": 6982,
      "whistle": 6983,
      "false": 6984,
      "Brazil": 6985,
      "Aileen": 6986,
      "BR": 6987,
      "Mmm": 6988,
      "Ori": 6989,
      "revolution": 6990,
      "limit": 6991,
      "hoped": 6992,
      "boot": 6993,
      "plor": 6994,
      "conver": 6995,
      "useta": 6996,
      "grey": 6997,
      "magn": 6998,
      "1969": 6999,
      "thousands": 7000,
      "suffering": 7001,
      "Depart": 7002,
      "Aha": 7003,
      "Clo": 7004,
      "Hart": 7005,
      "Nancy": 7006,
      "rode": 7007,
      "agger": 7008,
      "indu": 7009,
      "spark": 7010,
      "spending": 7011,
      "waters": 7012,
      "asks": 7013,
      "gger": 7014,
      "Grace": 7015,
      "sleepy": 7016,
      "Maisy": 7017,
      "stuffed": 7018,
      "ducks": 7019,
      "bags": 7020,
      "males": 7021,
      "protection": 7022,
      "sympa": 7023,
      "eagerly": 7024,
      "succeeded": 7025,
      "Lincoln": 7026,
      "\").": 7027,
      "Aren": 7028,
      "bast": 7029,
      "ez": 7030,
      "haw": 7031,
      "rots": 7032,
      "chums": 7033,
      "som": 7034,
      "ette": 7035,
      "compos": 7036,
      "letting": 7037,
      "causes": 7038,
      "vessel": 7039,
      "phones": 7040,
      "landed": 7041,
      "persu": 7042,
      "regret": 7043,
      "passengers": 7044,
      "Hockey": 7045,
      "penny": 7046,
      "1970": 7047,
      "Lucas": 7048,
      "companions": 7049,
      "ticket": 7050,
      "Hayden": 7051,
      "Irish": 7052,
      "attempts": 7053,
      "Wednes": 7054,
      "Soph": 7055,
      "jer": 7056,
      "mbed": 7057,
      "wyn": 7058,
      "unusual": 7059,
      "bore": 7060,
      "pole": 7061,
      "worthy": 7062,
      "counties": 7063,
      "preh": 7064,
      "calcul": 7065,
      "cycle": 7066,
      "warning": 7067,
      "covering": 7068,
      "subst": 7069,
      "daily": 7070,
      "powers": 7071,
      "Carolina": 7072,
      "Cu": 7073,
      "Lilian": 7074,
      "Sik": 7075,
      "UE": 7076,
      "cj": 7077,
      "ias": 7078,
      "charm": 7079,
      "ading": 7080,
      "shell": 7081,
      "whoo": 7082,
      "territory": 7083,
      "parent": 7084,
      "Scotland": 7085,
      "screaming": 7086,
      "affection": 7087,
      "extremely": 7088,
      "Damn": 7089,
      "completed": 7090,
      "49": 7091,
      "AA": 7092,
      "Hot": 7093,
      "Person": 7094,
      "lers": 7095,
      "lmer": 7096,
      "lamp": 7097,
      "pher": 7098,
      "chose": 7099,
      "aco": 7100,
      "umes": 7101,
      "explan": 7102,
      "conditions": 7103,
      "1981": 7104,
      "systems": 7105,
      "tracks": 7106,
      "connected": 7107,
      "Lawrence": 7108,
      "physical": 7109,
      "dreadful": 7110,
      "Sophie": 7111,
      "Dom": 7112,
      "Kang": 7113,
      "Mose": 7114,
      "Tu": 7115,
      "hta": 7116,
      "atre": 7117,
      "admit": 7118,
      "justice": 7119,
      "guide": 7120,
      "ahhah": 7121,
      "media": 7122,
      "secure": 7123,
      "THEY": 7124,
      "servants": 7125,
      "scen": 7126,
      "lately": 7127,
      "tropical": 7128,
      "reaching": 7129,
      "Emily": 7130,
      "adventure": 7131,
      "Pacific": 7132,
      "Department": 7133,
      "Bear": 7134,
      "Pa": 7135,
      "sched": 7136,
      "chim": 7137,
      "alle": 7138,
      "fork": 7139,
      "sock": 7140,
      "urt": 7141,
      "permission": 7142,
      "drag": 7143,
      "1984": 7144,
      "1976": 7145,
      "clip": 7146,
      "azy": 7147,
      "splash": 7148,
      "deserve": 7149,
      "achieve": 7150,
      "scheme": 7151,
      "Hang": 7152,
      "lest": 7153,
      "sul": 7154,
      "aghetti": 7155,
      "angers": 7156,
      "Ohio": 7157,
      "Though": 7158,
      "carpet": 7159,
      "nicely": 7160,
      "commander": 7161,
      "Missouri": 7162,
      "coloring": 7163,
      "vocalization": 7164,
      "reports": 7165,
      "Turkish": 7166,
      "Too": 7167,
      "Tenn": 7168,
      "pac": 7169,
      "rant": 7170,
      "rear": 7171,
      "ington": 7172,
      "wealth": 7173,
      "acle": 7174,
      "Soo": 7175,
      "districts": 7176,
      "serving": 7177,
      "cuts": 7178,
      "Joy": 7179,
      "roads": 7180,
      "Geography": 7181,
      "curi": 7182,
      "Without": 7183,
      "emplo": 7184,
      "Trump": 7185,
      "radi": 7186,
      "sales": 7187,
      "possession": 7188,
      "Aylmer": 7189,
      "tunnel": 7190,
      "Batala": 7191,
      "Labour": 7192,
      "freedom": 7193,
      "Bun": 7194,
      "Ever": 7195,
      "Pink": 7196,
      "Tele": 7197,
      "tan": 7198,
      "ufact": 7199,
      "assa": 7200,
      "esc": 7201,
      "lipp": 7202,
      "sauce": 7203,
      "acker": 7204,
      "provid": 7205,
      "Soci": 7206,
      "disappointed": 7207,
      "Cooper": 7208,
      "landing": 7209,
      "drum": 7210,
      "beds": 7211,
      "foods": 7212,
      "starring": 7213,
      "logist": 7214,
      "presidential": 7215,
      "loudly": 7216,
      "discuss": 7217,
      "platform": 7218,
      "ashamed": 7219,
      "sylvan": 7220,
      "Die": 7221,
      "FO": 7222,
      "Oli": 7223,
      "Seven": 7224,
      "Sud": 7225,
      "uous": 7226,
      "beans": 7227,
      "hoe": 7228,
      "gues": 7229,
      "pride": 7230,
      "register": 7231,
      "Gram": 7232,
      "Harvey": 7233,
      "distant": 7234,
      "Christop": 7235,
      "Bertha": 7236,
      "cows": 7237,
      "pigs": 7238,
      "interrupted": 7239,
      "connection": 7240,
      "RRR": 7241,
      "Welcome": 7242,
      "Rahul": 7243,
      "thedral": 7244,
      "42": 7245,
      "Bed": 7246,
      "Oak": 7247,
      "lace": 7248,
      "obey": 7249,
      "unable": 7250,
      "hore": 7251,
      "deer": 7252,
      "disco": 7253,
      "reak": 7254,
      "TED": 7255,
      "attended": 7256,
      "Josh": 7257,
      "royal": 7258,
      "scary": 7259,
      "Kore": 7260,
      "federal": 7261,
      "JJJ": 7262,
      "obliged": 7263,
      "Name": 7264,
      "Sco": 7265,
      "Winter": 7266,
      "keen": 7267,
      "ami": 7268,
      "tale": 7269,
      "pless": 7270,
      "demo": 7271,
      "promo": 7272,
      "ully": 7273,
      "mons": 7274,
      "mmm": 7275,
      "writes": 7276,
      "basis": 7277,
      "golden": 7278,
      "Campbell": 7279,
      "sylvania": 7280,
      "CLA": 7281,
      "JUST": 7282,
      "Ton": 7283,
      "Tall": 7284,
      "mister": 7285,
      "tt": 7286,
      "iculous": 7287,
      "earn": 7288,
      "crap": 7289,
      "IST": 7290,
      "OUR": 7291,
      "reality": 7292,
      "listed": 7293,
      "Exactly": 7294,
      "osity": 7295,
      "programs": 7296,
      "Wilson": 7297,
      "arrondissement": 7298,
      "Ama": 7299,
      "Fu": 7300,
      "Fall": 7301,
      "Kate": 7302,
      "Ni": 7303,
      "Tok": 7304,
      "Tem": 7305,
      "rels": 7306,
      "iring": 7307,
      "applic": 7308,
      "buzz": 7309,
      "embarr": 7310,
      "happiness": 7311,
      "ignor": 7312,
      "visited": 7313,
      "1975": 7314,
      "borough": 7315,
      "organized": 7316,
      "hills": 7317,
      "hippo": 7318,
      "Mosely": 7319,
      "embarrass": 7320,
      "Cle": 7321,
      "]...": 7322,
      "wings": 7323,
      "zi": 7324,
      "sels": 7325,
      "chart": 7326,
      "advis": 7327,
      "imper": 7328,
      "contains": 7329,
      "kings": 7330,
      "specially": 7331,
      "supply": 7332,
      "presents": 7333,
      "vili": 7334,
      "distinct": 7335,
      "Confed": 7336,
      "wooden": 7337,
      "bearing": 7338,
      "respond": 7339,
      "techn": 7340,
      "adventures": 7341,
      "tidy": 7342,
      "Frost": 7343,
      "Lieutenant": 7344,
      "Certain": 7345,
      "46": 7346,
      "Dra": 7347,
      "ller": 7348,
      "seated": 7349,
      "alys": 7350,
      "goat": 7351,
      "tryside": 7352,
      "exped": 7353,
      "istics": 7354,
      "mustn": 7355,
      "greet": 7356,
      "sounded": 7357,
      "ridge": 7358,
      "starred": 7359,
      "arrival": 7360,
      "necessarily": 7361,
      "Check": 7362,
      "violence": 7363,
      "temperature": 7364,
      "seventeen": 7365,
      "Massa": 7366,
      "Pennsylvania": 7367,
      "Wednesday": 7368,
      "85": 7369,
      "Gun": 7370,
      "PRO": 7371,
      "Tun": 7372,
      "accur": 7373,
      "mock": 7374,
      "nephe": 7375,
      "complic": 7376,
      "mental": 7377,
      "babble": 7378,
      "muse": 7379,
      "Ross": 7380,
      "cycl": 7381,
      "spots": 7382,
      "steel": 7383,
      "lley": 7384,
      "faction": 7385,
      "1968": 7386,
      "Prin": 7387,
      "eventually": 7388,
      "studies": 7389,
      "guests": 7390,
      "becca": 7391,
      "Mobile": 7392,
      "girlfriend": 7393,
      "Doub": 7394,
      "sla": 7395,
      "ugh": 7396,
      "stack": 7397,
      "omi": 7398,
      "Brid": 7399,
      "flung": 7400,
      "News": 7401,
      "1964": 7402,
      "Jethro": 7403,
      "attacks": 7404,
      "LAUGH": 7405,
      "Dora": 7406,
      "bullet": 7407,
      "technology": 7408,
      "bushes": 7409,
      "details": 7410,
      "wicked": 7411,
      "desperate": 7412,
      "Eh": 7413,
      "None": 7414,
      "plot": 7415,
      "sname": 7416,
      "tissue": 7417,
      "intake": 7418,
      "whale": 7419,
      "seized": 7420,
      "rod": 7421,
      "umph": 7422,
      "venge": 7423,
      "sphere": 7424,
      "earned": 7425,
      "countryside": 7426,
      "committed": 7427,
      "triangle": 7428,
      "capac": 7429,
      "ringing": 7430,
      "2023": 7431,
      "wishes": 7432,
      "Tech": 7433,
      "Absolutely": 7434,
      "buddy": 7435,
      "VERY": 7436,
      "Tyler": 7437,
      "officially": 7438,
      "injured": 7439,
      "restaurant": 7440,
      "pregnant": 7441,
      "congressional": 7442,
      "Christopher": 7443,
      "Ly": 7444,
      "Ren": 7445,
      "fa": 7446,
      "nis": 7447,
      "vit": 7448,
      "rella": 7449,
      "idiot": 7450,
      "tear": 7451,
      "hibit": 7452,
      "counting": 7453,
      "phr": 7454,
      "shops": 7455,
      "boyfriend": 7456,
      "funeral": 7457,
      "dressing": 7458,
      "allows": 7459,
      "Trans": 7460,
      "Richards": 7461,
      "concern": 7462,
      "uesday": 7463,
      "broadcast": 7464,
      "Caroline": 7465,
      "stretched": 7466,
      "Navy": 7467,
      "vehicle": 7468,
      "sniffs": 7469,
      "inhabitants": 7470,
      "resources": 7471,
      "helicopter": 7472,
      "Field": 7473,
      "PA": 7474,
      "Work": 7475,
      "dull": 7476,
      "ira": 7477,
      "peep": 7478,
      "manufact": 7479,
      "confir": 7480,
      "lesson": 7481,
      "inned": 7482,
      "Carter": 7483,
      "pond": 7484,
      "servant": 7485,
      "teachers": 7486,
      "grim": 7487,
      "DEB": 7488,
      "bishop": 7489,
      "Childsname": 7490,
      "Tan": 7491,
      "ology": 7492,
      "scow": 7493,
      "retire": 7494,
      "icide": 7495,
      "web": 7496,
      "noted": 7497,
      "ceased": 7498,
      "nah": 7499,
      "conference": 7500,
      "ulate": 7501,
      "guid": 7502,
      "elect": 7503,
      "Holy": 7504,
      "charges": 7505,
      "returns": 7506,
      "poorly": 7507,
      "miserable": 7508,
      "arrive": 7509,
      "icycle": 7510,
      "housing": 7511,
      "Liber": 7512,
      "Teddy": 7513,
      "oxide": 7514,
      "route": 7515,
      "Representatives": 7516,
      "effective": 7517,
      "300": 7518,
      "66": 7519,
      "Greg": 7520,
      "Jun": 7521,
      "Mall": 7522,
      "aah": 7523,
      "cation": 7524,
      "ients": 7525,
      "nge": 7526,
      "rr": 7527,
      "ssi": 7528,
      "wah": 7529,
      "hem": 7530,
      "glas": 7531,
      "genus": 7532,
      "belief": 7533,
      "1973": 7534,
      "1960": 7535,
      "snakes": 7536,
      "titles": 7537,
      "racing": 7538,
      "Children": 7539,
      "Stanley": 7540,
      "Susan": 7541,
      "Nok": 7542,
      "Pict": 7543,
      "Ron": 7544,
      "Whe": 7545,
      "jar": 7546,
      "enthus": 7547,
      "tile": 7548,
      "conven": 7549,
      "convin": 7550,
      "blank": 7551,
      "merged": 7552,
      "tort": 7553,
      "Bell": 7554,
      "trained": 7555,
      "grape": 7556,
      "Burton": 7557,
      "bubbles": 7558,
      "financial": 7559,
      "AH": 7560,
      "Ev": 7561,
      "KS": 7562,
      "MOR": 7563,
      "Sno": 7564,
      "TON": 7565,
      "cage": 7566,
      "feather": 7567,
      "ester": 7568,
      "seasons": 7569,
      "sole": 7570,
      "ental": 7571,
      "exceed": 7572,
      "backwards": 7573,
      "spaghetti": 7574,
      "item": 7575,
      "acts": 7576,
      "Thurs": 7577,
      "visions": 7578,
      "Record": 7579,
      "180": 7580,
      "lted": 7581,
      "minds": 7582,
      "climate": 7583,
      "network": 7584,
      "growth": 7585,
      "remaining": 7586,
      "Jersey": 7587,
      "Philipp": 7588,
      "squeeze": 7589,
      "grunts": 7590,
      "exhaust": 7591,
      "Massach": 7592,
      "Cro": 7593,
      "Jung": 7594,
      "MM": 7595,
      "tts": 7596,
      "orm": 7597,
      "leather": 7598,
      "semb": 7599,
      "bean": 7600,
      "amuse": 7601,
      "onge": 7602,
      "dile": 7603,
      "closes": 7604,
      "usetts": 7605,
      "priest": 7606,
      "grees": 7607,
      "rude": 7608,
      "recei": 7609,
      "considerable": 7610,
      "sexual": 7611,
      "authorities": 7612,
      "draft": 7613,
      "imitating": 7614,
      "Prefecture": 7615,
      "debate": 7616,
      "affairs": 7617,
      "conduct": 7618,
      "healthy": 7619,
      "Nokia": 7620,
      "Massachusetts": 7621,
      "\"\"": 7622,
      "Sc": 7623,
      "oray": 7624,
      "stam": 7625,
      "amend": 7626,
      "nearest": 7627,
      "tial": 7628,
      "wolf": 7629,
      "intense": 7630,
      "closing": 7631,
      "monkeys": 7632,
      "understanding": 7633,
      "approached": 7634,
      "loads": 7635,
      "benefit": 7636,
      "treasure": 7637,
      "attached": 7638,
      "Bus": 7639,
      "Dete": 7640,
      "Pot": 7641,
      "Song": 7642,
      "Ti": 7643,
      "dump": 7644,
      "hits": 7645,
      "jus": 7646,
      "ov": 7647,
      "yah": 7648,
      "án": 7649,
      "mann": 7650,
      "Bring": 7651,
      "fires": 7652,
      "Shit": 7653,
      "swept": 7654,
      "scored": 7655,
      "sorrow": 7656,
      "phrase": 7657,
      "DI": 7658,
      "Kay": 7659,
      "Mod": 7660,
      "Pip": 7661,
      "Tuesday": 7662,
      "lum": 7663,
      "tune": 7664,
      "uno": 7665,
      "ule": 7666,
      "enna": 7667,
      "hears": 7668,
      "wilight": 7669,
      "fever": 7670,
      "ulted": 7671,
      "blew": 7672,
      "laun": 7673,
      "chamber": 7674,
      "aka": 7675,
      "ridiculous": 7676,
      "Produ": 7677,
      "metres": 7678,
      "violent": 7679,
      "Victoria": 7680,
      "threatened": 7681,
      "photograph": 7682,
      "capture": 7683,
      "Winnie": 7684,
      "Society": 7685,
      "Edu": 7686,
      "FRO": 7687,
      "GRO": 7688,
      "VID": 7689,
      "knot": 7690,
      "lou": 7691,
      "tore": 7692,
      "chess": 7693,
      "wels": 7694,
      "oker": 7695,
      "ilst": 7696,
      "gee": 7697,
      "babbling": 7698,
      "glanced": 7699,
      "ports": 7700,
      "household": 7701,
      "colon": 7702,
      "begun": 7703,
      "climbed": 7704,
      "roller": 7705,
      "importance": 7706,
      "location": 7707,
      "Merri": 7708,
      "shelter": 7709,
      "Biography": 7710,
      "sembly": 7711,
      "FL": 7712,
      "Fif": 7713,
      "Ur": 7714,
      "reward": 7715,
      "rah": 7716,
      "affect": 7717,
      "guitar": 7718,
      "lings": 7719,
      "ashes": 7720,
      "moral": 7721,
      "1974": 7722,
      "culiar": 7723,
      "supported": 7724,
      "costs": 7725,
      "packed": 7726,
      "murdered": 7727,
      "competed": 7728,
      "mystery": 7729,
      "Chat": 7730,
      "Dal": 7731,
      "Hand": 7732,
      "SPE": 7733,
      "buh": 7734,
      "emot": 7735,
      "noble": 7736,
      "rivers": 7737,
      "irts": 7738,
      "aman": 7739,
      "amused": 7740,
      "peculiar": 7741,
      "inkle": 7742,
      "1930": 7743,
      "Andrew": 7744,
      "brick": 7745,
      "THAN": 7746,
      "possibility": 7747,
      "1977": 7748,
      "Keith": 7749,
      "Kevin": 7750,
      "doctors": 7751,
      "vinces": 7752,
      "municipal": 7753,
      "delightful": 7754,
      "affected": 7755,
      "labor": 7756,
      "Laugh": 7757,
      "cheeky": 7758,
      "migration": 7759,
      "Douglas": 7760,
      "cigaret": 7761,
      "fy": 7762,
      "osa": 7763,
      "hamm": 7764,
      "beard": 7765,
      "Rebecca": 7766,
      "passage": 7767,
      "Pope": 7768,
      "planet": 7769,
      "painted": 7770,
      "organis": 7771,
      "WELL": 7772,
      "banging": 7773,
      "bidden": 7774,
      "environmental": 7775,
      "troubles": 7776,
      "Film": 7777,
      "crocodile": 7778,
      "Thursday": 7779,
      "Jam": 7780,
      "Mir": 7781,
      "Ot": 7782,
      "Ve": 7783,
      "fake": 7784,
      "gment": 7785,
      "theless": 7786,
      "remove": 7787,
      "levels": 7788,
      "stea": 7789,
      "stress": 7790,
      "beam": 7791,
      "domin": 7792,
      "adel": 7793,
      "lover": 7794,
      "limp": 7795,
      "ARD": 7796,
      "guards": 7797,
      "cia": 7798,
      "compared": 7799,
      "commonly": 7800,
      "aki": 7801,
      "hundreds": 7802,
      "buying": 7803,
      "touching": 7804,
      "creatures": 7805,
      "Sergeant": 7806,
      "ICE": 7807,
      "kilo": 7808,
      "Ireland": 7809,
      "Hugh": 7810,
      "mysterious": 7811,
      "fetch": 7812,
      "negative": 7813,
      "Meanwhile": 7814,
      "Lad": 7815,
      "MR": 7816,
      "SU": 7817,
      "pies": 7818,
      "pud": 7819,
      "lemon": 7820,
      "stan": 7821,
      "limb": 7822,
      "impression": 7823,
      "ulf": 7824,
      "counted": 7825,
      "Reliance": 7826,
      "facts": 7827,
      "planes": 7828,
      "1966": 7829,
      "defence": 7830,
      "expecting": 7831,
      "activities": 7832,
      "Scholarship": 7833,
      "touches": 7834,
      "lemn": 7835,
      "championship": 7836,
      "tools": 7837,
      "65": 7838,
      "Hung": 7839,
      "Nas": 7840,
      "cuddle": 7841,
      "nit": 7842,
      "oons": 7843,
      "inte": 7844,
      "haul": 7845,
      "adult": 7846,
      "aced": 7847,
      "wanting": 7848,
      "civili": 7849,
      "mont": 7850,
      "animated": 7851,
      "distress": 7852,
      "1978": 7853,
      "magnetic": 7854,
      "ABOUT": 7855,
      "assistant": 7856,
      "philoso": 7857,
      "assured": 7858,
      "incredible": 7859,
      "slavery": 7860,
      "AG": 7861,
      "Pret": 7862,
      "Sl": 7863,
      "scan": 7864,
      "scat": 7865,
      "ón": 7866,
      "onia": 7867,
      "stations": 7868,
      "goo": 7869,
      "solemn": 7870,
      "holy": 7871,
      "destru": 7872,
      "Islands": 7873,
      "jected": 7874,
      "flict": 7875,
      "profit": 7876,
      "reference": 7877,
      "extended": 7878,
      "complex": 7879,
      "zero": 7880,
      "idae": 7881,
      "Eliot": 7882,
      "approaching": 7883,
      "Jessica": 7884,
      "Castle": 7885,
      "diamond": 7886,
      "Korean": 7887,
      "Gina": 7888,
      "Kath": 7889,
      "Line": 7890,
      "NOW": 7891,
      "Pur": 7892,
      "ique": 7893,
      "scale": 7894,
      "thetic": 7895,
      "ardo": 7896,
      "alpha": 7897,
      "units": 7898,
      "eau": 7899,
      "trap": 7900,
      "ilton": 7901,
      "shining": 7902,
      "earch": 7903,
      "stopping": 7904,
      "prince": 7905,
      "ANY": 7906,
      "pton": 7907,
      "kindness": 7908,
      "compound": 7909,
      "capable": 7910,
      "Moon": 7911,
      "sticking": 7912,
      "dawn": 7913,
      "snap": 7914,
      "Poland": 7915,
      "belonged": 7916,
      "basketball": 7917,
      "satisfaction": 7918,
      "Francisco": 7919,
      "concentr": 7920,
      "argument": 7921,
      "Director": 7922,
      "Cind": 7923,
      "FA": 7924,
      "Game": 7925,
      "Hend": 7926,
      "Must": 7927,
      "SP": 7928,
      "Want": 7929,
      "gb": 7930,
      "mut": 7931,
      "muttered": 7932,
      "envelo": 7933,
      "arian": 7934,
      "icies": 7935,
      "gog": 7936,
      "plates": 7937,
      "gettin": 7938,
      "Hee": 7939,
      "composed": 7940,
      "puty": 7941,
      "childhood": 7942,
      "glor": 7943,
      "useless": 7944,
      "visitors": 7945,
      "pretending": 7946,
      "primary": 7947,
      "umpy": 7948,
      "1983": 7949,
      "returning": 7950,
      "Jewish": 7951,
      "ALLY": 7952,
      "Wales": 7953,
      "slee": 7954,
      "discussion": 7955,
      "GET": 7956,
      "labour": 7957,
      "cereal": 7958,
      "Austria": 7959,
      "significant": 7960,
      "CD": 7961,
      "Cad": 7962,
      "SHE": 7963,
      "nonsense": 7964,
      "anas": 7965,
      "mood": 7966,
      "pled": 7967,
      "kingdom": 7968,
      "Instead": 7969,
      "Leon": 7970,
      "Lewis": 7971,
      "horror": 7972,
      "burden": 7973,
      "1971": 7974,
      "treatment": 7975,
      "kicking": 7976,
      "prisoners": 7977,
      "SEE": 7978,
      "Tigger": 7979,
      "55": 7980,
      "Bre": 7981,
      "KT": 7982,
      "Rho": 7983,
      "Rel": 7984,
      "festival": 7985,
      "sought": 7986,
      "tat": 7987,
      "wers": 7988,
      "yup": 7989,
      "andra": 7990,
      "gods": 7991,
      "kee": 7992,
      "tians": 7993,
      "resident": 7994,
      "dith": 7995,
      "shapes": 7996,
      "helpless": 7997,
      "Cook": 7998,
      "Howard": 7999,
      "Anton": 8000,
      "joint": 8001,
      "venture": 8002,
      "squeal": 8003,
      "Leg": 8004,
      "bells": 8005,
      "defense": 8006,
      "Polish": 8007,
      "teaching": 8008,
      "Atlantic": 8009,
      "bish": 8010,
      "arose": 8011,
      "seal": 8012,
      "washer": 8013,
      "liquid": 8014,
      "rily": 8015,
      "irs": 8016,
      "urban": 8017,
      "degrees": 8018,
      "Head": 8019,
      "clay": 8020,
      "Chick": 8021,
      "chal": 8022,
      "drank": 8023,
      "attitude": 8024,
      "contro": 8025,
      "triumph": 8026,
      "archite": 8027,
      "winds": 8028,
      "confused": 8029,
      "Colin": 8030,
      "WHO": 8031,
      "islands": 8032,
      "umbrella": 8033,
      "adopted": 8034,
      "Garth": 8035,
      "introduce": 8036,
      "Duke": 8037,
      "antique": 8038,
      "Championships": 8039,
      "audience": 8040,
      "Wood": 8041,
      "Simon": 8042,
      "employed": 8043,
      "3rd": 8044,
      "Civ": 8045,
      "Eastern": 8046,
      "Sever": 8047,
      "awards": 8048,
      "uals": 8049,
      "chant": 8050,
      "goals": 8051,
      "acious": 8052,
      "unte": 8053,
      "pear": 8054,
      "trace": 8055,
      "grade": 8056,
      "disgust": 8057,
      "orden": 8058,
      "angel": 8059,
      "consum": 8060,
      "bara": 8061,
      "humans": 8062,
      "basic": 8063,
      "Grandpa": 8064,
      "snack": 8065,
      "confident": 8066,
      "Victor": 8067,
      "historical": 8068,
      "Dream": 8069,
      "ET": 8070,
      "Mun": 8071,
      "Pu": 8072,
      "Top": 8073,
      "_I": 8074,
      "bars": 8075,
      "ials": 8076,
      "pens": 8077,
      "stout": 8078,
      "chip": 8079,
      "okes": 8080,
      "olph": 8081,
      "cracy": 8082,
      "friger": 8083,
      "Maria": 8084,
      "policies": 8085,
      "Johnny": 8086,
      "RIGHT": 8087,
      "instit": 8088,
      "anxi": 8089,
      "constant": 8090,
      "formula_": 8091,
      "instrument": 8092,
      "Gordon": 8093,
      "Ukraine": 8094,
      "76": 8095,
      "BS": 8096,
      "Battle": 8097,
      "DAY": 8098,
      "PLA": 8099,
      "gum": 8100,
      "essee": 8101,
      "admitted": 8102,
      "aba": 8103,
      "donkey": 8104,
      "igno": 8105,
      "caut": 8106,
      "cler": 8107,
      "disagree": 8108,
      "Start": 8109,
      "gled": 8110,
      "friendship": 8111,
      "Mayor": 8112,
      "Benjam": 8113,
      "Japazy": 8114,
      "leads": 8115,
      "senior": 8116,
      "Jeann": 8117,
      "Service": 8118,
      "LOOK": 8119,
      "proceeded": 8120,
      "Engine": 8121,
      "Tennessee": 8122,
      "Confeder": 8123,
      "Creeks": 8124,
      "EP": 8125,
      "Karen": 8126,
      "bend": 8127,
      "dining": 8128,
      "eding": 8129,
      "meters": 8130,
      "nowhere": 8131,
      "vet": 8132,
      "decent": 8133,
      "grabs": 8134,
      "disci": 8135,
      "obtained": 8136,
      "wrapped": 8137,
      "smoking": 8138,
      "dug": 8139,
      "Argent": 8140,
      "thankful": 8141,
      "Point": 8142,
      "cowboy": 8143,
      "utterance": 8144,
      "Series": 8145,
      "holidays": 8146,
      "bastard": 8147,
      "alysis": 8148,
      "Benjamin": 8149,
      ",...": 8150,
      "Avenue": 8151,
      "Bour": 8152,
      "Offic": 8153,
      "QU": 8154,
      "Vin": 8155,
      "plo": 8156,
      "rag": 8157,
      "thief": 8158,
      "steam": 8159,
      "roast": 8160,
      "liest": 8161,
      "conqu": 8162,
      "previously": 8163,
      "jelly": 8164,
      "surgery": 8165,
      "sticky": 8166,
      "legend": 8167,
      "swear": 8168,
      "agging": 8169,
      "naturally": 8170,
      "shortly": 8171,
      "Guard": 8172,
      "reasonable": 8173,
      "kicked": 8174,
      "describe": 8175,
      "separated": 8176,
      "Better": 8177,
      "lux": 8178,
      "Middle": 8179,
      "concluded": 8180,
      "votes": 8181,
      "confirmed": 8182,
      "Detective": 8183,
      "2nd": 8184,
      "Hond": 8185,
      "IES": 8186,
      "Publ": 8187,
      "WAY": 8188,
      "Wacker": 8189,
      "ires": 8190,
      "pace": 8191,
      "thumb": 8192,
      "inch": 8193,
      "review": 8194,
      "aroo": 8195,
      "stated": 8196,
      "stares": 8197,
      "cope": 8198,
      "Younge": 8199,
      "convict": 8200,
      "opy": 8201,
      "intention": 8202,
      "shoo": 8203,
      "mistaken": 8204,
      "1967": 8205,
      "rider": 8206,
      "figured": 8207,
      "1957": 8208,
      "feeding": 8209,
      "napkin": 8210,
      "merely": 8211,
      "furniture": 8212,
      "warriors": 8213,
      "Spring": 8214,
      "Israel": 8215,
      "Youngeun": 8216,
      "(,": 8217,
      "1st": 8218,
      "AF": 8219,
      "Ap": 8220,
      "Clear": 8221,
      "Kas": 8222,
      "Number": 8223,
      "dah": 8224,
      "mour": 8225,
      "pier": 8226,
      "ée": 8227,
      "thunder": 8228,
      "ghan": 8229,
      "unexpected": 8230,
      "hooray": 8231,
      "perman": 8232,
      "diag": 8233,
      "chew": 8234,
      "Annie": 8235,
      "penguin": 8236,
      "alongside": 8237,
      "solution": 8238,
      "responded": 8239,
      "testing": 8240,
      "athlet": 8241,
      "package": 8242,
      "status": 8243,
      "electron": 8244,
      "railway": 8245,
      "demanded": 8246,
      "istol": 8247,
      "dolph": 8248,
      "nephew": 8249,
      "Civil": 8250,
      "Fle": 8251,
      "Gall": 8252,
      "IX": 8253,
      "Rick": 8254,
      "nations": 8255,
      "scal": 8256,
      "tables": 8257,
      "inse": 8258,
      "chill": 8259,
      "acce": 8260,
      "uncomfortable": 8261,
      "shelf": 8262,
      "nail": 8263,
      "excl": 8264,
      "merry": 8265,
      "ission": 8266,
      "lasted": 8267,
      "frag": 8268,
      "march": 8269,
      "nearby": 8270,
      "hurting": 8271,
      "consult": 8272,
      "END": 8273,
      "Follow": 8274,
      "product": 8275,
      "Manip": 8276,
      "ruff": 8277,
      "midnight": 8278,
      "opera": 8279,
      "classes": 8280,
      "confusion": 8281,
      "Shag": 8282,
      "batter": 8283,
      "loyal": 8284,
      "absence": 8285,
      "economy": 8286,
      "resolution": 8287,
      "Federal": 8288,
      "Sudden": 8289,
      "Gro": 8290,
      "Muse": 8291,
      "Tro": 8292,
      "breed": 8293,
      "dumb": 8294,
      "whilst": 8295,
      "chum": 8296,
      "ATE": 8297,
      "ows": 8298,
      "overlap": 8299,
      "spider": 8300,
      "enses": 8301,
      "Deb": 8302,
      "prime": 8303,
      "syn": 8304,
      "COVID": 8305,
      "midst": 8306,
      "grapes": 8307,
      "arrows": 8308,
      "scrap": 8309,
      "cheerful": 8310,
      "experiment": 8311,
      "commercial": 8312,
      "Certainly": 8313,
      "launched": 8314,
      "Az": 8315,
      "Ass": 8316,
      "Nana": 8317,
      "dirt": 8318,
      "andy": 8319,
      "verb": 8320,
      "enters": 8321,
      "Until": 8322,
      "prey": 8323,
      "attles": 8324,
      "element": 8325,
      "drinks": 8326,
      "patch": 8327,
      "150": 8328,
      "cotton": 8329,
      "educated": 8330,
      "HERE": 8331,
      "claps": 8332,
      "Hyun": 8333,
      "Freder": 8334,
      "crawl": 8335,
      "NNN": 8336,
      "economic": 8337,
      "Sikander": 8338,
      "Shagbark": 8339,
      "Cru": 8340,
      "HOR": 8341,
      "Lam": 8342,
      "MS": 8343,
      "Vas": 8344,
      "oven": 8345,
      "tuck": 8346,
      "ugu": 8347,
      "arse": 8348,
      "sear": 8349,
      "lob": 8350,
      "entine": 8351,
      "hoho": 8352,
      "impress": 8353,
      "defeat": 8354,
      "nails": 8355,
      "hati": 8356,
      "maker": 8357,
      "illustr": 8358,
      "inder": 8359,
      "lett": 8360,
      "crab": 8361,
      "rison": 8362,
      "Sean": 8363,
      "179": 8364,
      "speaker": 8365,
      "rades": 8366,
      "Corpor": 8367,
      "LIKE": 8368,
      "depends": 8369,
      "faithful": 8370,
      "reduced": 8371,
      "traditional": 8372,
      "vegetables": 8373,
      "400": 8374,
      "Agent": 8375,
      "tab": 8376,
      "inini": 8377,
      "remo": 8378,
      "reput": 8379,
      "endo": 8380,
      "encour": 8381,
      "hamb": 8382,
      "shif": 8383,
      "themat": 8384,
      "elbow": 8385,
      "clothing": 8386,
      "cared": 8387,
      "mothers": 8388,
      "bands": 8389,
      "distingu": 8390,
      "sunshine": 8391,
      "checking": 8392,
      "exception": 8393,
      "safely": 8394,
      "battery": 8395,
      "prints": 8396,
      "Emma": 8397,
      "crossing": 8398,
      "gradually": 8399,
      "punishment": 8400,
      "executive": 8401,
      "Career": 8402,
      "investigation": 8403,
      "Pipina": 8404,
      "Henderson": 8405,
      "Pier": 8406,
      "Sem": 8407,
      "sank": 8408,
      "stall": 8409,
      "stared": 8410,
      "dot": 8411,
      "pelled": 8412,
      "dee": 8413,
      "enda": 8414,
      "20th": 8415,
      "brinini": 8416,
      "answers": 8417,
      "Sobrinini": 8418,
      "disappear": 8419,
      "cater": 8420,
      "aked": 8421,
      "flood": 8422,
      "volunte": 8423,
      "COME": 8424,
      "leaders": 8425,
      "1956": 8426,
      "neighbour": 8427,
      "device": 8428,
      "announce": 8429,
      "foolish": 8430,
      "Half": 8431,
      "occasionally": 8432,
      "existence": 8433,
      "Ratner": 8434,
      "ceremony": 8435,
      "Tokyo": 8436,
      "?]": 8437,
      "Aw": 8438,
      "CL": 8439,
      "DID": 8440,
      "Gri": 8441,
      "Kong": 8442,
      "Mister": 8443,
      "Tour": 8444,
      "Valley": 8445,
      "creek": 8446,
      "pul": 8447,
      "piss": 8448,
      "virt": 8449,
      "onna": 8450,
      "assem": 8451,
      "icas": 8452,
      "advert": 8453,
      "endea": 8454,
      "geon": 8455,
      "stores": 8456,
      "mercy": 8457,
      "shaped": 8458,
      "MAD": 8459,
      "lighted": 8460,
      "fron": 8461,
      "jolly": 8462,
      "parrot": 8463,
      "Maya": 8464,
      "Enter": 8465,
      "Boys": 8466,
      "Meite": 8467,
      "garbage": 8468,
      "1958": 8469,
      "daughters": 8470,
      "tickets": 8471,
      "thrust": 8472,
      "citizens": 8473,
      "hammad": 8474,
      "Buck": 8475,
      "Cra": 8476,
      "Power": 8477,
      "cular": 8478,
      "wret": 8479,
      "wins": 8480,
      "rever": 8481,
      "esh": 8482,
      "nods": 8483,
      "allig": 8484,
      "outs": 8485,
      "pops": 8486,
      "feared": 8487,
      "estic": 8488,
      "comin": 8489,
      "quant": 8490,
      "Andre": 8491,
      "discover": 8492,
      "Marion": 8493,
      "controlled": 8494,
      "Ready": 8495,
      "cription": 8496,
      "Force": 8497,
      "Holl": 8498,
      "Somebody": 8499,
      "products": 8500,
      "Barbara": 8501,
      "cherry": 8502,
      "Luke": 8503,
      "billion": 8504,
      "prepare": 8505,
      "Interviews": 8506,
      "surrounded": 8507,
      "method": 8508,
      "multiple": 8509,
      "valuable": 8510,
      "Merriman": 8511,
      "BBC": 8512,
      "Know": 8513,
      "Lor": 8514,
      "OVER": 8515,
      "Story": 8516,
      "Suk": 8517,
      "YS": 8518,
      "cush": 8519,
      "fli": 8520,
      "fles": 8521,
      "gic": 8522,
      "ij": 8523,
      "vive": 8524,
      "wander": 8525,
      "tops": 8526,
      "coo": 8527,
      "tier": 8528,
      "estate": 8529,
      "oped": 8530,
      "opposed": 8531,
      "endous": 8532,
      "raising": 8533,
      "Through": 8534,
      "hired": 8535,
      "waist": 8536,
      "frank": 8537,
      "Alger": 8538,
      "identified": 8539,
      "warn": 8540,
      "gasp": 8541,
      "1962": 8542,
      "prompt": 8543,
      "catching": 8544,
      "tivity": 8545,
      "expressed": 8546,
      "increasing": 8547,
      "episodes": 8548,
      "NewmanRatner": 8549,
      ";\"": 8550,
      "Found": 8551,
      "Pick": 8552,
      "Wild": 8553,
      "bam": 8554,
      "escue": 8555,
      "heap": 8556,
      "beating": 8557,
      "chased": 8558,
      "tex": 8559,
      "article": 8560,
      "wherever": 8561,
      "backs": 8562,
      "adding": 8563,
      "sham": 8564,
      "tryin": 8565,
      "Islam": 8566,
      "criminal": 8567,
      "Connor": 8568,
      "humming": 8569,
      "leaning": 8570,
      "staring": 8571,
      "Quick": 8572,
      "Brook": 8573,
      "Brooke": 8574,
      "ginger": 8575,
      "static": 8576,
      "memories": 8577,
      "depend": 8578,
      "Fortescue": 8579,
      "variety": 8580,
      "Wonder": 8581,
      "Beaut": 8582,
      "museum": 8583,
      "anxiety": 8584,
      "Meitei": 8585,
      "Blake": 8586,
      "Dever": 8587,
      "Morning": 8588,
      "Poo": 8589,
      "Twilight": 8590,
      "git": 8591,
      "gloves": 8592,
      "jab": 8593,
      "sher": 8594,
      "aning": 8595,
      "automat": 8596,
      "comments": 8597,
      "worm": 8598,
      "anyhow": 8599,
      "Social": 8600,
      "carrots": 8601,
      "bucket": 8602,
      "label": 8603,
      "dragged": 8604,
      "insist": 8605,
      "insurance": 8606,
      "numerous": 8607,
      "cury": 8608,
      "Secur": 8609,
      "ultural": 8610,
      "directions": 8611,
      "Commission": 8612,
      "Pardon": 8613,
      "Jackie": 8614,
      "uttering": 8615,
      "Among": 8616,
      "Times": 8617,
      "Egypt": 8618,
      "divorced": 8619,
      "discovery": 8620,
      "expedition": 8621,
      "Lim": 8622,
      "MENT": 8623,
      "Twenty": 8624,
      "VIII": 8625,
      "gates": 8626,
      "loft": 8627,
      "mac": 8628,
      "pts": 8629,
      "vation": 8630,
      "wreck": 8631,
      "recess": 8632,
      "ques": 8633,
      "obvious": 8634,
      "intim": 8635,
      "tennis": 8636,
      "Revolution": 8637,
      "insisted": 8638,
      "Bridge": 8639,
      "catches": 8640,
      "killer": 8641,
      "umpty": 8642,
      "thirsty": 8643,
      "ruined": 8644,
      "1961": 8645,
      "mitage": 8646,
      "1943": 8647,
      "protected": 8648,
      "mounted": 8649,
      "bench": 8650,
      "Musab": 8651,
      "activist": 8652,
      "stretch": 8653,
      "Isaac": 8654,
      "phia": 8655,
      "jingle": 8656,
      "cottage": 8657,
      "Jeannine": 8658,
      "Bis": 8659,
      "Bri": 8660,
      "Cut": 8661,
      "GI": 8662,
      "Mau": 8663,
      "Vene": 8664,
      "bah": 8665,
      "fid": 8666,
      "fasc": 8667,
      "hn": 8668,
      "hart": 8669,
      "tide": 8670,
      "oni": 8671,
      "orrow": 8672,
      "begged": 8673,
      "urer": 8674,
      "whoever": 8675,
      "exact": 8676,
      "goods": 8677,
      "Soon": 8678,
      "balloons": 8679,
      "champ": 8680,
      "Armitage": 8681,
      "engage": 8682,
      "Conne": 8683,
      "Constit": 8684,
      "hydro": 8685,
      "operating": 8686,
      "OWN": 8687,
      "repeat": 8688,
      "loaded": 8689,
      "sandwiches": 8690,
      "folded": 8691,
      "fuss": 8692,
      "fantastic": 8693,
      "Roland": 8694,
      "principal": 8695,
      "assume": 8696,
      "dialect": 8697,
      "convinced": 8698,
      "amendment": 8699,
      "Several": 8700,
      "Frederick": 8701,
      "Cze": 8702,
      "Fame": 8703,
      "LING": 8704,
      "Rh": 8705,
      "Set": 8706,
      "Tai": 8707,
      "VII": 8708,
      "fled": 8709,
      "té": 8710,
      "theme": 8711,
      "ashore": 8712,
      "aro": 8713,
      "secre": 8714,
      "chants": 8715,
      "hadta": 8716,
      "indign": 8717,
      "Things": 8718,
      "selfish": 8719,
      "torn": 8720,
      "longest": 8721,
      "Colo": 8722,
      "lieutenant": 8723,
      "Moscow": 8724,
      "squad": 8725,
      "stickers": 8726,
      "Conference": 8727,
      "entering": 8728,
      "expand": 8729,
      "deeply": 8730,
      "enjoying": 8731,
      "Emperor": 8732,
      "Terri": 8733,
      "render": 8734,
      "Harrison": 8735,
      "printed": 8736,
      "Ruthven": 8737,
      "Channel": 8738,
      "Peters": 8739,
      "bracelet": 8740,
      "Museum": 8741,
      "86": 8742,
      "DA": 8743,
      "Dig": 8744,
      "Easter": 8745,
      "Kill": 8746,
      "Lane": 8747,
      "TLE": 8748,
      "Upper": 8749,
      "Zoe": 8750,
      "ctives": 8751,
      "enorm": 8752,
      "impatient": 8753,
      "artists": 8754,
      "comrades": 8755,
      "brid": 8756,
      "Thus": 8757,
      "shared": 8758,
      "Rosa": 8759,
      "dude": 8760,
      "Goodbye": 8761,
      "kidna": 8762,
      "musician": 8763,
      "Express": 8764,
      "boards": 8765,
      "politics": 8766,
      "strongly": 8767,
      "1952": 8768,
      "drawer": 8769,
      "constantly": 8770,
      "Human": 8771,
      "associated": 8772,
      "nodded": 8773,
      "apologize": 8774,
      "43": 8775,
      "Eag": 8776,
      "Hank": 8777,
      "Mem": 8778,
      "gorge": 8779,
      "incorpor": 8780,
      "christ": 8781,
      "umin": 8782,
      "cker": 8783,
      "ardens": 8784,
      "context": 8785,
      "explor": 8786,
      "provision": 8787,
      "obtain": 8788,
      "cleared": 8789,
      "Boss": 8790,
      "ASE": 8791,
      "formerly": 8792,
      "hunters": 8793,
      "Samuel": 8794,
      "feature": 8795,
      "extraordinary": 8796,
      "scientific": 8797,
      "awarded": 8798,
      "instructions": 8799,
      "biscuits": 8800,
      "Office": 8801,
      "pussy": 8802,
      "temporary": 8803,
      "explanation": 8804,
      "adelphia": 8805,
      "Suddenly": 8806,
      "Devering": 8807,
      "Bax": 8808,
      "ELL": 8809,
      "Jac": 8810,
      "dict": 8811,
      "hast": 8812,
      "eaking": 8813,
      "apers": 8814,
      "rai": 8815,
      "clin": 8816,
      "Inspector": 8817,
      "minim": 8818,
      "Anth": 8819,
      "joining": 8820,
      "dropping": 8821,
      "hums": 8822,
      "burnt": 8823,
      "generous": 8824,
      "goddess": 8825,
      "settlements": 8826,
      "projects": 8827,
      "Finally": 8828,
      "strawberry": 8829,
      "Randolph": 8830,
      "biscuit": 8831,
      "Radio": 8832,
      "fierce": 8833,
      "defeated": 8834,
      "hambur": 8835,
      "caterpill": 8836,
      "77": 8837,
      "88": 8838,
      "Borden": 8839,
      "Cwww": 8840,
      "Hit": 8841,
      "HOW": 8842,
      "Tay": 8843,
      "WA": 8844,
      "bree": 8845,
      "bble": 8846,
      "ders": 8847,
      "gart": 8848,
      "poured": 8849,
      "valley": 8850,
      "esome": 8851,
      "stiff": 8852,
      "beloved": 8853,
      "ader": 8854,
      "locks": 8855,
      "impressed": 8856,
      "canoe": 8857,
      "shri": 8858,
      "ctic": 8859,
      "bron": 8860,
      "cricket": 8861,
      "broom": 8862,
      "stays": 8863,
      "sweat": 8864,
      "Conserv": 8865,
      "operations": 8866,
      "1945": 8867,
      "files": 8868,
      "Franklin": 8869,
      "Ellen": 8870,
      "literally": 8871,
      "Nichol": 8872,
      "Persian": 8873,
      "Heaven": 8874,
      "Doubs": 8875,
      "95": 8876,
      "Bud": 8877,
      "Edr": 8878,
      "HIS": 8879,
      "MISS": 8880,
      "Ple": 8881,
      "Ras": 8882,
      "cure": 8883,
      "kit": 8884,
      "tad": 8885,
      "anie": 8886,
      "chlor": 8887,
      "wig": 8888,
      "urb": 8889,
      "tah": 8890,
      "odds": 8891,
      "Whit": 8892,
      "TEN": 8893,
      "baa": 8894,
      "prem": 8895,
      "breathe": 8896,
      "patience": 8897,
      "Prague": 8898,
      "terribly": 8899,
      "rabbits": 8900,
      "grief": 8901,
      "decisions": 8902,
      "dinosaurs": 8903,
      "additional": 8904,
      "Against": 8905,
      "frequently": 8906,
      "thoroughly": 8907,
      "Personal": 8908,
      "capacity": 8909,
      "Edric": 8910,
      "Cous": 8911,
      "Mount": 8912,
      "Py": 8913,
      "Send": 8914,
      "mrs": 8915,
      "vas": 8916,
      "ía": 8917,
      "inqu": 8918,
      "OTHER": 8919,
      "aling": 8920,
      "abund": 8921,
      "canora": 8922,
      "yourselves": 8923,
      "ulu": 8924,
      "omer": 8925,
      "overall": 8926,
      "retreat": 8927,
      "mayor": 8928,
      "izz": 8929,
      "Alab": 8930,
      "tribut": 8931,
      "1980s": 8932,
      "Champ": 8933,
      "Berlin": 8934,
      "1942": 8935,
      "Color": 8936,
      "Kenned": 8937,
      "scram": 8938,
      "firmly": 8939,
      "bucks": 8940,
      "widow": 8941,
      "recommend": 8942,
      "pudding": 8943,
      "Nascanora": 8944,
      "BLE": 8945,
      "Gary": 8946,
      "Met": 8947,
      "Mwww": 8948,
      "cine": 8949,
      "pine": 8950,
      "heels": 8951,
      "utt": 8952,
      "absolute": 8953,
      "hima": 8954,
      "shift": 8955,
      "oping": 8956,
      "quo": 8957,
      "cling": 8958,
      "carto": 8959,
      "closet": 8960,
      "launch": 8961,
      "Dog": 8962,
      "Alaska": 8963,
      "awk": 8964,
      "flour": 8965,
      "passes": 8966,
      "personally": 8967,
      "interests": 8968,
      "natives": 8969,
      "Micro": 8970,
      "Class": 8971,
      "trucks": 8972,
      "secretary": 8973,
      "Haven": 8974,
      "rushing": 8975,
      "Billboard": 8976,
      "critical": 8977,
      "duties": 8978,
      "GOOD": 8979,
      "prayer": 8980,
      "cabinet": 8981,
      "customed": 8982,
      "uniform": 8983,
      "poetry": 8984,
      "cadets": 8985,
      "Egyp": 8986,
      "Sweden": 8987,
      "gazed": 8988,
      "neighbors": 8989,
      "journalist": 8990,
      "alphabet": 8991,
      "discipl": 8992,
      "Daw": 8993,
      "Hong": 8994,
      "Ice": 8995,
      "Metro": 8996,
      "Ner": 8997,
      "oat": 8998,
      "reci": 8999,
      "recovered": 9000,
      "reaction": 9001,
      "ales": 9002,
      "depression": 9003,
      "congrat": 9004,
      "assign": 9005,
      "wrap": 9006,
      "Coll": 9007,
      "Coch": 9008,
      "izations": 9009,
      "situ": 9010,
      "vention": 9011,
      "Form": 9012,
      "Box": 9013,
      "azz": 9014,
      "approved": 9015,
      "Trust": 9016,
      "description": 9017,
      "puppet": 9018,
      "transferred": 9019,
      "mistress": 9020,
      "Anthony": 9021,
      ":--": 9022,
      "Beach": 9023,
      "Duck": 9024,
      "Eight": 9025,
      "Kent": 9026,
      "Live": 9027,
      "NG": 9028,
      "Pun": 9029,
      "Pass": 9030,
      "fuel": 9031,
      "gam": 9032,
      "hh": 9033,
      "kang": 9034,
      "rejo": 9035,
      "OTH": 9036,
      "alco": 9037,
      "accompan": 9038,
      "pockets": 9039,
      "combin": 9040,
      "Institute": 9041,
      "guar": 9042,
      "disaster": 9043,
      "mines": 9044,
      "breaks": 9045,
      "funds": 9046,
      "doorway": 9047,
      "horiz": 9048,
      "sweep": 9049,
      "Meg": 9050,
      "UNC": 9051,
      "annual": 9052,
      "1959": 9053,
      "agreement": 9054,
      "consideration": 9055,
      "bullets": 9056,
      "experienced": 9057,
      "bouncy": 9058,
      "barely": 9059,
      "clamation": 9060,
      "Denver": 9061,
      "integr": 9062,
      "Kennedy": 9063,
      "79": 9064,
      "Elo": 9065,
      "Native": 9066,
      "yucky": 9067,
      "ern": 9068,
      "refriger": 9069,
      "bees": 9070,
      "sob": 9071,
      "rip": 9072,
      "unclear": 9073,
      "bored": 9074,
      "suicide": 9075,
      "bru": 9076,
      "reads": 9077,
      "Coast": 9078,
      "yell": 9079,
      "creation": 9080,
      "despair": 9081,
      "Joel": 9082,
      "laying": 9083,
      "Tomorrow": 9084,
      "1960s": 9085,
      "Philadelphia": 9086,
      "Small": 9087,
      "ACK": 9088,
      "Syl": 9089,
      "victims": 9090,
      "scientists": 9091,
      "demonstr": 9092,
      "wagons": 9093,
      "employe": 9094,
      "accompanied": 9095,
      "Bry": 9096,
      "Cli": 9097,
      "Cry": 9098,
      "Gulf": 9099,
      "Main": 9100,
      "Os": 9101,
      "Wes": 9102,
      "_A": 9103,
      "dated": 9104,
      "mast": 9105,
      "mush": 9106,
      "vant": 9107,
      "aspect": 9108,
      "whining": 9109,
      "chances": 9110,
      "coward": 9111,
      "unning": 9112,
      "feast": 9113,
      "cting": 9114,
      "oused": 9115,
      "dia": 9116,
      "torney": 9117,
      "vessels": 9118,
      "iley": 9119,
      "Hope": 9120,
      "Short": 9121,
      "sciss": 9122,
      "dealing": 9123,
      "claims": 9124,
      "Doesn": 9125,
      "Graham": 9126,
      "delicate": 9127,
      "Clara": 9128,
      "Square": 9129,
      "Saxony": 9130,
      "Records": 9131,
      "Pretty": 9132,
      "!’": 9133,
      ".)": 9134,
      "Edith": 9135,
      "GU": 9136,
      "Whis": 9137,
      "bib": 9138,
      "dared": 9139,
      "dating": 9140,
      "rican": 9141,
      "sack": 9142,
      "uge": 9143,
      "attr": 9144,
      "recall": 9145,
      "tori": 9146,
      "aya": 9147,
      "adal": 9148,
      "hollow": 9149,
      "hopes": 9150,
      "contained": 9151,
      "ppy": 9152,
      "interpret": 9153,
      "Unless": 9154,
      "marbles": 9155,
      "parliament": 9156,
      "ketch": 9157,
      "sixth": 9158,
      "pressing": 9159,
      "potential": 9160,
      "boring": 9161,
      "1947": 9162,
      "sharing": 9163,
      "suggestion": 9164,
      "ruled": 9165,
      "knocking": 9166,
      "onathan": 9167,
      "Congrat": 9168,
      "tremendous": 9169,
      "chapter": 9170,
      "Special": 9171,
      "llenge": 9172,
      "peanut": 9173,
      "FROM": 9174,
      "Alabama": 9175,
      "Ocean": 9176,
      "Pas": 9177,
      "Snow": 9178,
      "Same": 9179,
      "_Ro": 9180,
      "gur": 9181,
      "nan": 9182,
      "ux": 9183,
      "yon": 9184,
      "yield": 9185,
      "thel": 9186,
      "editor": 9187,
      "hea": 9188,
      "stair": 9189,
      "stamp": 9190,
      "stadium": 9191,
      "root": 9192,
      "accused": 9193,
      "soil": 9194,
      "ett": 9195,
      "ceiling": 9196,
      "tiles": 9197,
      "hated": 9198,
      "provinces": 9199,
      "span": 9200,
      "ava": 9201,
      "lighter": 9202,
      "inners": 9203,
      "regions": 9204,
      "formation": 9205,
      "crimin": 9206,
      "Grant": 9207,
      "zebra": 9208,
      "horrid": 9209,
      "politan": 9210,
      "1950": 9211,
      "1951": 9212,
      "OFF": 9213,
      "regarding": 9214,
      "symbol": 9215,
      "Randall": 9216,
      "cadet": 9217,
      "preparing": 9218,
      "behavior": 9219,
      "flesh": 9220,
      "Pooja": 9221,
      "Venez": 9222,
      "Gas": 9223,
      "Haut": 9224,
      "Jonathan": 9225,
      "borders": 9226,
      "gap": 9227,
      "glow": 9228,
      "hitting": 9229,
      "lung": 9230,
      "paste": 9231,
      "rates": 9232,
      "vir": 9233,
      "informed": 9234,
      "meter": 9235,
      "kel": 9236,
      "loo": 9237,
      "format": 9238,
      "pective": 9239,
      "butt": 9240,
      "mathemat": 9241,
      "observ": 9242,
      "glue": 9243,
      "Nether": 9244,
      "talkin": 9245,
      "elements": 9246,
      "Granny": 9247,
      "puff": 9248,
      "Christians": 9249,
      "1955": 9250,
      "candle": 9251,
      "imagined": 9252,
      "Natal": 9253,
      "massive": 9254,
      "scrub": 9255,
      "bounce": 9256,
      "jamas": 9257,
      "comedian": 9258,
      "acquaint": 9259,
      "Atlantique": 9260,
      "Austrian": 9261,
      "arrangements": 9262,
      "hesitated": 9263,
      "destruction": 9264,
      "kangaroo": 9265,
      "Cri": 9266,
      "Cob": 9267,
      "Kam": 9268,
      "Mouse": 9269,
      "PR": 9270,
      "Sue": 9271,
      "dart": 9272,
      "ffe": 9273,
      "fitted": 9274,
      "morn": 9275,
      "ori": 9276,
      "accustomed": 9277,
      "poly": 9278,
      "poop": 9279,
      "Youth": 9280,
      "opard": 9281,
      "daylight": 9282,
      "reduce": 9283,
      "bride": 9284,
      "clar": 9285,
      "Thirty": 9286,
      "hire": 9287,
      "survive": 9288,
      "regional": 9289,
      "muscles": 9290,
      "solve": 9291,
      "REE": 9292,
      "mischief": 9293,
      "apply": 9294,
      "govern": 9295,
      "zzy": 9296,
      "salary": 9297,
      "generation": 9298,
      "explains": 9299,
      "raph": 9300,
      "kerchief": 9301,
      "Viet": 9302,
      "WILL": 9303,
      "Muhammad": 9304,
      "Larry": 9305,
      "Mamma": 9306,
      "stealing": 9307,
      "Archie": 9308,
      "struggling": 9309,
      "contrast": 9310,
      "sneezes": 9311,
      "Pinkie": 9312,
      "Ladies": 9313,
      "glorious": 9314,
      "Eloise": 9315,
      "Congratulations": 9316,
      "87": 9317,
      "89": 9318,
      "Dere": 9319,
      "Gal": 9320,
      "Lind": 9321,
      "Ri": 9322,
      "Ring": 9323,
      "TRI": 9324,
      "cub": 9325,
      "joking": 9326,
      "kite": 9327,
      "heh": 9328,
      "lee": 9329,
      "chasing": 9330,
      "soda": 9331,
      "Theo": 9332,
      "trash": 9333,
      "ainted": 9334,
      "concept": 9335,
      "spired": 9336,
      "clas": 9337,
      "dram": 9338,
      "despite": 9339,
      "maintain": 9340,
      "sticker": 9341,
      "purse": 9342,
      "pursuit": 9343,
      "USE": 9344,
      "aboard": 9345,
      "1946": 9346,
      "McN": 9347,
      "Clinton": 9348,
      "representative": 9349,
      "Margie": 9350,
      "delivered": 9351,
      "GRUN": 9352,
      "Commander": 9353,
      "Broadway": 9354,
      "Security": 9355,
      "Aub": 9356,
      "Jord": 9357,
      "Nu": 9358,
      "Nep": 9359,
      "Pete": 9360,
      "Way": 9361,
      "bund": 9362,
      "dea": 9363,
      "gif": 9364,
      "jf": 9365,
      "jah": 9366,
      "las": 9367,
      "vul": 9368,
      "zburg": 9369,
      "atmo": 9370,
      "asion": 9371,
      "hail": 9372,
      "dose": 9373,
      "adad": 9374,
      "ambit": 9375,
      "user": 9376,
      "poll": 9377,
      "rescu": 9378,
      "angles": 9379,
      "shaw": 9380,
      "atively": 9381,
      "invite": 9382,
      "sharply": 9383,
      "magnets": 9384,
      "Queens": 9385,
      "DOOR": 9386,
      "impact": 9387,
      "historic": 9388,
      "sympathy": 9389,
      "guidance": 9390,
      "Scient": 9391,
      "YES": 9392,
      "dried": 9393,
      "CHUCK": 9394,
      "seas": 9395,
      "behave": 9396,
      "beef": 9397,
      "lod": 9398,
      "una": 9399,
      "abor": 9400,
      "plung": 9401,
      "seeking": 9402,
      "combat": 9403,
      "quet": 9404,
      "hase": 9405,
      "compli": 9406,
      "innit": 9407,
      "personality": 9408,
      "gym": 9409,
      "painful": 9410,
      "placing": 9411,
      "REAM": 9412,
      "software": 9413,
      "tests": 9414,
      "Patch": 9415,
      "instantly": 9416,
      "Indiana": 9417,
      "equally": 9418,
      "Walt": 9419,
      "panic": 9420,
      "crowded": 9421,
      "swinging": 9422,
      "Freud": 9423,
      "aguar": 9424,
      "troubled": 9425,
      "Duncan": 9426,
      "procedure": 9427,
      "savage": 9428,
      "annoy": 9429,
      "louder": 9430,
      "\";": 9431,
      "Bi": 9432,
      "Dro": 9433,
      "Having": 9434,
      "Ian": 9435,
      "JE": 9436,
      "Mind": 9437,
      "Pie": 9438,
      "Ven": 9439,
      "Yang": 9440,
      "bies": 9441,
      "mart": 9442,
      "”!": 9443,
      "injury": 9444,
      "heim": 9445,
      "stum": 9446,
      "icated": 9447,
      "ups": 9448,
      "Health": 9449,
      "shield": 9450,
      "worms": 9451,
      "buff": 9452,
      "Therefore": 9453,
      "yelling": 9454,
      "dese": 9455,
      "commission": 9456,
      "Erin": 9457,
      "Hero": 9458,
      "relations": 9459,
      "Mcdon": 9460,
      "Grandad": 9461,
      "domestic": 9462,
      "Walter": 9463,
      "cracker": 9464,
      "techni": 9465,
      "Darius": 9466,
      "Celia": 9467,
      "Hamilton": 9468,
      "Melissa": 9469,
      "wrestler": 9470,
      "favourite": 9471,
      "Pictures": 9472,
      "attractive": 9473,
      "Netherlands": 9474,
      "Bush": 9475,
      "DEN": 9476,
      "Moo": 9477,
      "RF": 9478,
      "RU": 9479,
      "WWE": 9480,
      "cers": 9481,
      "ially": 9482,
      "iji": 9483,
      "praise": 9484,
      "shad": 9485,
      "♪♪": 9486,
      "inity": 9487,
      "inspe": 9488,
      "inburgh": 9489,
      "iser": 9490,
      "robe": 9491,
      "chu": 9492,
      "taps": 9493,
      "hats": 9494,
      "conserv": 9495,
      "hastily": 9496,
      "diaper": 9497,
      "Stud": 9498,
      "brook": 9499,
      "startled": 9500,
      "sities": 9501,
      "Forget": 9502,
      "skull": 9503,
      "movements": 9504,
      "Edinburgh": 9505,
      "ORY": 9506,
      "corre": 9507,
      "messy": 9508,
      "refuse": 9509,
      "operate": 9510,
      "1948": 9511,
      "chickens": 9512,
      "GHS": 9513,
      "practically": 9514,
      "1939": 9515,
      "rubbish": 9516,
      "collea": 9517,
      "blessed": 9518,
      "surrounding": 9519,
      "magnific": 9520,
      "Joyce": 9521,
      "Vietnam": 9522,
      "92": 9523,
      "Fat": 9524,
      "Ga": 9525,
      "Glo": 9526,
      "Glad": 9527,
      "Mull": 9528,
      "ccer": 9529,
      "cattle": 9530,
      "mers": 9531,
      "theatre": 9532,
      "islat": 9533,
      "loan": 9534,
      "usie": 9535,
      "aph": 9536,
      "option": 9537,
      "ideal": 9538,
      "mured": 9539,
      "suppor": 9540,
      "column": 9541,
      "polar": 9542,
      "pense": 9543,
      "grounds": 9544,
      "ighs": 9545,
      "Julie": 9546,
      "greenbelt": 9547,
      "1963": 9548,
      "Guadal": 9549,
      "borne": 9550,
      "1940": 9551,
      "Drusie": 9552,
      "issued": 9553,
      "uki": 9554,
      "digging": 9555,
      "honestly": 9556,
      "conclusion": 9557,
      "Region": 9558,
      "detective": 9559,
      "abandoned": 9560,
      "Princess": 9561,
      "alcohol": 9562,
      "scissors": 9563,
      "Venezuel": 9564,
      ")}": 9565,
      "Grun": 9566,
      "Hye": 9567,
      "LF": 9568,
      "Rab": 9569,
      "Sof": 9570,
      "dign": 9571,
      "ec": 9572,
      "fs": 9573,
      "snat": 9574,
      "toms": 9575,
      "entry": 9576,
      "improved": 9577,
      "eling": 9578,
      "offers": 9579,
      "plement": 9580,
      "firing": 9581,
      "headquarters": 9582,
      "phan": 9583,
      "lightly": 9584,
      "founder": 9585,
      "tons": 9586,
      "awfully": 9587,
      "ugal": 9588,
      "highchair": 9589,
      "deaths": 9590,
      "swung": 9591,
      "1954": 9592,
      "APP": 9593,
      "vanished": 9594,
      "murmured": 9595,
      "smells": 9596,
      "Maced": 9597,
      "studying": 9598,
      "fashioned": 9599,
      "industrial": 9600,
      "Research": 9601,
      "combined": 9602,
      "Girls": 9603,
      "Education": 9604,
      "56": 9605,
      "Area": 9606,
      "GAS": 9607,
      "waving": 9608,
      "thri": 9609,
      "inher": 9610,
      "anne": 9611,
      "analysis": 9612,
      "itage": 9613,
      "whi": 9614,
      "seeds": 9615,
      "utions": 9616,
      "adjust": 9617,
[...]
